{
  "version": "1.0",
  "truncation": null,
  "padding": null,
  "added_tokens": [
    {
      "id": 0,
      "content": "<unk>",
      "single_word": false,
      "lstrip": false,
      "rstrip": false,
      "normalized": false,
      "special": true
    },
    {
      "id": 1,
      "content": "<pad>",
      "single_word": false,
      "lstrip": false,
      "rstrip": false,
      "normalized": false,
      "special": true
    },
    {
      "id": 2,
      "content": "<bos>",
      "single_word": false,
      "lstrip": false,
      "rstrip": false,
      "normalized": false,
      "special": true
    },
    {
      "id": 3,
      "content": "<eos>",
      "single_word": false,
      "lstrip": false,
      "rstrip": false,
      "normalized": false,
      "special": true
    },
    {
      "id": 4,
      "content": "<versel1>",
      "single_word": false,
      "lstrip": false,
      "rstrip": false,
      "normalized": false,
      "special": true
    },
    {
      "id": 5,
      "content": "<versel2>",
      "single_word": false,
      "lstrip": false,
      "rstrip": false,
      "normalized": false,
      "special": true
    },
    {
      "id": 6,
      "content": "<linebreak>",
      "single_word": false,
      "lstrip": false,
      "rstrip": false,
      "normalized": false,
      "special": true
    }
  ],
  "normalizer": null,
  "pre_tokenizer": {
    "type": "Whitespace"
  },
  "post_processor": null,
  "decoder": null,
  "model": {
    "type": "BPE",
    "dropout": null,
    "unk_token": "<unk>",
    "continuing_subword_prefix": null,
    "end_of_word_suffix": null,
    "fuse_unk": false,
    "byte_fallback": false,
    "ignore_merges": false,
    "vocab": {
      "<unk>": 0,
      "<pad>": 1,
      "<bos>": 2,
      "<eos>": 3,
      "<versel1>": 4,
      "<versel2>": 5,
      "<linebreak>": 6,
      "1": 7,
      "2": 8,
      "<": 9,
      ">": 10,
      "a": 11,
      "b": 12,
      "e": 13,
      "i": 14,
      "k": 15,
      "l": 16,
      "n": 17,
      "r": 18,
      "s": 19,
      "v": 20,
      "آ": 21,
      "ا": 22,
      "ب": 23,
      "ت": 24,
      "ث": 25,
      "ج": 26,
      "ح": 27,
      "خ": 28,
      "د": 29,
      "ذ": 30,
      "ر": 31,
      "ز": 32,
      "س": 33,
      "ش": 34,
      "ص": 35,
      "ض": 36,
      "ط": 37,
      "ظ": 38,
      "ع": 39,
      "غ": 40,
      "ف": 41,
      "ق": 42,
      "ل": 43,
      "م": 44,
      "ن": 45,
      "ه": 46,
      "و": 47,
      "پ": 48,
      "چ": 49,
      "ژ": 50,
      "ک": 51,
      "گ": 52,
      "ی": 53,
      "el": 54,
      "er": 55,
      "sel": 56,
      "ver": 57,
      "versel": 58,
      "ak": 59,
      "br": 60,
      "eak": 61,
      "ebr": 62,
      "in": 63,
      "lin": 64,
      "versel1": 65,
      "versel2": 66,
      "ebreak": 67,
      "linebreak": 68,
      "ان": 69,
      "ست": 70,
      "ای": 71,
      "که": 72,
      "ار": 73,
      "از": 74,
      "به": 75,
      "در": 76,
      "می": 77,
      "بر": 78,
      "با": 79,
      "ند": 80,
      "را": 81,
      "خو": 82,
      "رو": 83,
      "تو": 84,
      "گر": 85,
      "من": 86,
      "ده": 87,
      "ال": 88,
      "بی": 89,
      "ام": 90,
      "فت": 91,
      "نی": 92,
      "دل": 93,
      "دی": 94,
      "اه": 95,
      "است": 96,
      "وی": 97,
      "اف": 98,
      "ری": 99,
      "این": 100,
      "ود": 101,
      "آن": 102,
      "چو": 103,
      "کن": 104,
      "رد": 105,
      "اد": 106,
      "ما": 107,
      "سر": 108,
      "نه": 109,
      "چه": 110,
      "دو": 111,
      "شی": 112,
      "هر": 113,
      "شد": 114,
      "شم": 115,
      "سی": 116,
      "دار": 117,
      "هم": 118,
      "حاف": 119,
      "حافظ": 120,
      "تا": 121,
      "یر": 122,
      "او": 123,
      "نگ": 124,
      "بود": 125,
      "دم": 126,
      "شت": 127,
      "خت": 128,
      "مان": 129,
      "شک": 130,
      "جان": 131,
      "گل": 132,
      "دا": 133,
      "شق": 134,
      "گو": 135,
      "ور": 136,
      "ره": 137,
      "گفت": 138,
      "لب": 139,
      "پی": 140,
      "کرد": 141,
      "انه": 142,
      "باد": 143,
      "اب": 144,
      "اق": 145,
      "ین": 146,
      "اک": 147,
      "زل": 148,
      "نو": 149,
      "دست": 150,
      "خوش": 151,
      "چون": 152,
      "رم": 153,
      "باز": 154,
      "غم": 155,
      "دان": 156,
      "نیست": 157,
      "پر": 158,
      "یار": 159,
      "چشم": 160,
      "آی": 161,
      "جه": 162,
      "لی": 163,
      "روی": 164,
      "مر": 165,
      "عشق": 166,
      "کار": 167,
      "روز": 168,
      "مد": 169,
      "نم": 170,
      "یا": 171,
      "سو": 172,
      "شان": 173,
      "کی": 174,
      "کند": 175,
      "مع": 176,
      "نمی": 177,
      "خود": 178,
      "هی": 179,
      "جا": 180,
      "رخ": 181,
      "شو": 182,
      "طر": 183,
      "خواه": 184,
      "انی": 185,
      "شاه": 186,
      "مل": 187,
      "بو": 188,
      "تر": 189,
      "رق": 190,
      "ایی": 191,
      "گی": 192,
      "اگر": 193,
      "جام": 194,
      "عی": 195,
      "زلف": 196,
      "مست": 197,
      "بت": 198,
      "کر": 199,
      "زد": 200,
      "شه": 201,
      "نا": 202,
      "مت": 203,
      "خی": 204,
      "جهان": 205,
      "بان": 206,
      "کس": 207,
      "کو": 208,
      "باشد": 209,
      "نق": 210,
      "اری": 211,
      "خاک": 212,
      "لط": 213,
      "دوست": 214,
      "گوی": 215,
      "مرا": 216,
      "کنم": 217,
      "تی": 218,
      "له": 219,
      "فی": 220,
      "همه": 221,
      "مح": 222,
      "صد": 223,
      "نظ": 224,
      "گذ": 225,
      "ساق": 226,
      "فر": 227,
      "عا": 228,
      "رفت": 229,
      "دارد": 230,
      "بند": 231,
      "ون": 232,
      "اله": 233,
      "اند": 234,
      "دیده": 235,
      "زی": 236,
      "لو": 237,
      "عل": 238,
      "برد": 239,
      "آب": 240,
      "سرو": 241,
      "شود": 242,
      "آید": 243,
      "یم": 244,
      "راه": 245,
      "افت": 246,
      "هو": 247,
      "آمد": 248,
      "خون": 249,
      "امی": 250,
      "سن": 251,
      "بار": 252,
      "شب": 253,
      "صل": 254,
      "تش": 255,
      "حر": 256,
      "سخ": 257,
      "کز": 258,
      "ها": 259,
      "یک": 260,
      "یاد": 261,
      "بست": 262,
      "داد": 263,
      "کنی": 264,
      "راب": 265,
      "باده": 266,
      "بین": 267,
      "خانه": 268,
      "زار": 269,
      "صبا": 270,
      "خور": 271,
      "بس": 272,
      "ساقی": 273,
      "خم": 274,
      "مج": 275,
      "عه": 276,
      "وان": 277,
      "زان": 278,
      "رند": 279,
      "قد": 280,
      "توان": 281,
      "اح": 282,
      "رس": 283,
      "فرو": 284,
      "لت": 285,
      "فا": 286,
      "نان": 287,
      "خدا": 288,
      "اید": 289,
      "جر": 290,
      "بن": 291,
      "جز": 292,
      "قت": 293,
      "ماه": 294,
      "سخن": 295,
      "ابر": 296,
      "نج": 297,
      "کش": 298,
      "اع": 299,
      "پیر": 300,
      "گه": 301,
      "نظر": 302,
      "عاشق": 303,
      "بوی": 304,
      "دای": 305,
      "شر": 306,
      "بخ": 307,
      "سل": 308,
      "کم": 309,
      "شکر": 310,
      "بل": 311,
      "مه": 312,
      "دور": 313,
      "شید": 314,
      "حال": 315,
      "خر": 316,
      "گیر": 317,
      "رود": 318,
      "رین": 319,
      "بح": 320,
      "فل": 321,
      "اندر": 322,
      "حسن": 323,
      "نام": 324,
      "خوی": 325,
      "داری": 326,
      "قی": 327,
      "خط": 328,
      "لعل": 329,
      "بد": 330,
      "شا": 331,
      "بیا": 332,
      "قص": 333,
      "هست": 334,
      "ایت": 335,
      "گرد": 336,
      "دین": 337,
      "دولت": 338,
      "دگر": 339,
      "چرا": 340,
      "هیچ": 341,
      "زمان": 342,
      "نر": 343,
      "سیم": 344,
      "صو": 345,
      "عمر": 346,
      "کوی": 347,
      "آتش": 348,
      "حا": 349,
      "عال": 350,
      "مکن": 351,
      "گشت": 352,
      "شمع": 353,
      "زه": 354,
      "مو": 355,
      "پیش": 356,
      "امت": 357,
      "هزار": 358,
      "باش": 359,
      "خواهد": 360,
      "رب": 361,
      "مهر": 362,
      "یست": 363,
      "دری": 364,
      "دلم": 365,
      "لطف": 366,
      "سا": 367,
      "چند": 368,
      "گاه": 369,
      "آو": 370,
      "ناز": 371,
      "گفتم": 372,
      "پرده": 373,
      "گیرد": 374,
      "خیال": 375,
      "جم": 376,
      "حی": 377,
      "خرا": 378,
      "زند": 379,
      "مگر": 380,
      "زم": 381,
      "صبح": 382,
      "گرفت": 383,
      "ولی": 384,
      "گان": 385,
      "رقه": 386,
      "لق": 387,
      "طرب": 388,
      "جو": 389,
      "زر": 390,
      "سحر": 391,
      "کام": 392,
      "آه": 393,
      "ات": 394,
      "بخت": 395,
      "بش": 396,
      "راز": 397,
      "طلب": 398,
      "مشک": 399,
      "کان": 400,
      "سب": 401,
      "قل": 402,
      "سته": 403,
      "درد": 404,
      "نقش": 405,
      "سای": 406,
      "صح": 407,
      "قر": 408,
      "پای": 409,
      "چمن": 410,
      "کل": 411,
      "زن": 412,
      "ید": 413,
      "نک": 414,
      "حق": 415,
      "سم": 416,
      "عر": 417,
      "مق": 418,
      "کنند": 419,
      "دارم": 420,
      "خرقه": 421,
      "زیر": 422,
      "سوی": 423,
      "صف": 424,
      "مغ": 425,
      "کسی": 426,
      "یب": 427,
      "ستان": 428,
      "نین": 429,
      "دوش": 430,
      "جای": 431,
      "دام": 432,
      "رنگ": 433,
      "شراب": 434,
      "پرو": 435,
      "کشی": 436,
      "کجا": 437,
      "خواب": 438,
      "اش": 439,
      "سه": 440,
      "سود": 441,
      "فرا": 442,
      "مس": 443,
      "نبود": 444,
      "وقت": 445,
      "مرغ": 446,
      "فلک": 447,
      "ته": 448,
      "زین": 449,
      "نسیم": 450,
      "گس": 451,
      "میان": 452,
      "ندار": 453,
      "دیم": 454,
      "عالم": 455,
      "غر": 456,
      "همی": 457,
      "خوان": 458,
      "سال": 459,
      "اره": 460,
      "رسد": 461,
      "خویش": 462,
      "خا": 463,
      "شن": 464,
      "قو": 465,
      "روان": 466,
      "گری": 467,
      "همچو": 468,
      "سوخت": 469,
      "ملک": 470,
      "اده": 471,
      "بلب": 472,
      "لس": 473,
      "مش": 474,
      "کج": 475,
      "دهد": 476,
      "اهل": 477,
      "گوشه": 478,
      "شوق": 479,
      "آورد": 480,
      "آخر": 481,
      "باب": 482,
      "پرس": 483,
      "افتاد": 484,
      "نشی": 485,
      "وه": 486,
      "الی": 487,
      "دید": 488,
      "حری": 489,
      "مرد": 490,
      "وش": 491,
      "چنان": 492,
      "میخانه": 493,
      "سید": 494,
      "روزی": 495,
      "جب": 496,
      "فری": 497,
      "وصل": 498,
      "گار": 499,
      "بینم": 500,
      "کردم": 501,
      "تم": 502,
      "نف": 503,
      "شتی": 504,
      "گوش": 505,
      "انداز": 506,
      "عهد": 507,
      "آر": 508,
      "بگذ": 509,
      "ساز": 510,
      "طری": 511,
      "وز": 512,
      "ارت": 513,
      "بیار": 514,
      "ابروی": 515,
      "بع": 516,
      "نش": 517,
      "مجلس": 518,
      "بلبل": 519,
      "خبر": 520,
      "چنین": 521,
      "صحبت": 522,
      "حک": 523,
      "خند": 524,
      "مژ": 525,
      "پری": 526,
      "کاین": 527,
      "باغ": 528,
      "نهان": 529,
      "شیرین": 530,
      "ماند": 531,
      "امید": 532,
      "بخش": 533,
      "نرگس": 534,
      "جوی": 535,
      "غل": 536,
      "وص": 537,
      "کده": 538,
      "گش": 539,
      "میکده": 540,
      "خوا": 541,
      "بنده": 542,
      "بده": 543,
      "سلط": 544,
      "نباشد": 545,
      "چنگ": 546,
      "ایم": 547,
      "دلی": 548,
      "تاب": 549,
      "نگار": 550,
      "نوش": 551,
      "خورشید": 552,
      "باید": 553,
      "حت": 554,
      "طره": 555,
      "هجر": 556,
      "توست": 557,
      "منزل": 558,
      "ترک": 559,
      "عیب": 560,
      "نکته": 561,
      "بدان": 562,
      "زاه": 563,
      "طل": 564,
      "عقل": 565,
      "عجب": 566,
      "وفا": 567,
      "پاد": 568,
      "دروی": 569,
      "برو": 570,
      "آم": 571,
      "خل": 572,
      "خلو": 573,
      "سان": 574,
      "بری": 575,
      "خواهم": 576,
      "ندارد": 577,
      "سنگ": 578,
      "شهر": 579,
      "صر": 580,
      "عم": 581,
      "عن": 582,
      "غیر": 583,
      "بال": 584,
      "شدم": 585,
      "همت": 586,
      "کرده": 587,
      "قصه": 588,
      "ساغر": 589,
      "سایه": 590,
      "خاطر": 591,
      "کجاست": 592,
      "اشک": 593,
      "زبان": 594,
      "شنی": 595,
      "طو": 596,
      "نشان": 597,
      "ندی": 598,
      "بگو": 599,
      "بدین": 600,
      "تیر": 601,
      "خال": 602,
      "دمی": 603,
      "صه": 604,
      "عار": 605,
      "غری": 606,
      "فان": 607,
      "لاله": 608,
      "های": 609,
      "وس": 610,
      "پاک": 611,
      "گنج": 612,
      "بیم": 613,
      "سیاه": 614,
      "طرف": 615,
      "عیش": 616,
      "گویم": 617,
      "قدح": 618,
      "مغان": 619,
      "دع": 620,
      "رسید": 621,
      "غن": 622,
      "مدار": 623,
      "مطرب": 624,
      "ناه": 625,
      "بات": 626,
      "باشی": 627,
      "کنون": 628,
      "سوز": 629,
      "مراد": 630,
      "صوفی": 631,
      "بسی": 632,
      "ببرد": 633,
      "حدی": 634,
      "نتوان": 635,
      "مین": 636,
      "شته": 637,
      "جانان": 638,
      "دامن": 639,
      "مستی": 640,
      "گذر": 641,
      "خواجه": 642,
      "شاد": 643,
      "قدر": 644,
      "لال": 645,
      "ناله": 646,
      "دانی": 647,
      "بسته": 648,
      "رندان": 649,
      "وصال": 650,
      "جلو": 651,
      "خراب": 652,
      "فکر": 653,
      "نت": 654,
      "نور": 655,
      "چین": 656,
      "کمان": 657,
      "گران": 658,
      "نیز": 659,
      "زاهد": 660,
      "حدیث": 661,
      "جلوه": 662,
      "حلق": 663,
      "ضر": 664,
      "کف": 665,
      "رام": 666,
      "افتد": 667,
      "رندی": 668,
      "جرعه": 669,
      "حلقه": 670,
      "صی": 671,
      "فشان": 672,
      "کرم": 673,
      "دراز": 674,
      "داخت": 675,
      "آفت": 676,
      "اخت": 677,
      "خیر": 678,
      "سپ": 679,
      "صاف": 680,
      "چیست": 681,
      "بهار": 682,
      "روم": 683,
      "داشت": 684,
      "فروش": 685,
      "حاج": 686,
      "آری": 687,
      "ببین": 688,
      "رح": 689,
      "صبر": 690,
      "طه": 691,
      "عزی": 692,
      "نکرد": 693,
      "انداخت": 694,
      "بهر": 695,
      "برون": 696,
      "خورد": 697,
      "نیم": 698,
      "اوست": 699,
      "گوهر": 700,
      "جمال": 701,
      "خرابات": 702,
      "مردم": 703,
      "جود": 704,
      "عذ": 705,
      "ول": 706,
      "توبه": 707,
      "شیوه": 708,
      "شاهد": 709,
      "اعت": 710,
      "بلند": 711,
      "مشکین": 712,
      "فراق": 713,
      "حکایت": 714,
      "اج": 715,
      "دش": 716,
      "رخت": 717,
      "صاح": 718,
      "مباد": 719,
      "کین": 720,
      "ازل": 721,
      "ندان": 722,
      "بینی": 723,
      "ادم": 724,
      "شمه": 725,
      "غمزه": 726,
      "بودی": 727,
      "غنچه": 728,
      "ادی": 729,
      "تن": 730,
      "جور": 731,
      "شنا": 732,
      "صور": 733,
      "طال": 734,
      "عت": 735,
      "قدم": 736,
      "کشد": 737,
      "روح": 738,
      "دهان": 739,
      "فته": 740,
      "نیک": 741,
      "سیر": 742,
      "سینه": 743,
      "داند": 744,
      "هوای": 745,
      "چراغ": 746,
      "خلوت": 747,
      "تنگ": 748,
      "خدم": 749,
      "خسرو": 750,
      "داو": 751,
      "دعا": 752,
      "سلی": 753,
      "عاق": 754,
      "پس": 755,
      "چرخ": 756,
      "کشم": 757,
      "اندی": 758,
      "ایام": 759,
      "الله": 760,
      "دیو": 761,
      "گفتا": 762,
      "آیی": 763,
      "آینه": 764,
      "خواهی": 765,
      "آفتاب": 766,
      "صاحب": 767,
      "آز": 768,
      "تق": 769,
      "شما": 770,
      "شعر": 771,
      "مپرس": 772,
      "نس": 773,
      "ناف": 774,
      "کا": 775,
      "ستی": 776,
      "الت": 777,
      "دلبر": 778,
      "ریم": 779,
      "شیخ": 780,
      "خته": 781,
      "مانی": 782,
      "معشوق": 783,
      "تیغ": 784,
      "محت": 785,
      "فرست": 786,
      "کنیم": 787,
      "گشته": 788,
      "مسکین": 789,
      "حاجت": 790,
      "تاز": 791,
      "خج": 792,
      "خام": 793,
      "دنی": 794,
      "زده": 795,
      "طمع": 796,
      "ماست": 797,
      "ناب": 798,
      "ارم": 799,
      "برآید": 800,
      "منت": 801,
      "چهره": 802,
      "حافظا": 803,
      "تاج": 804,
      "اول": 805,
      "نگه": 806,
      "پیمان": 807,
      "یاران": 808,
      "ساقیا": 809,
      "سلامت": 810,
      "دریغ": 811,
      "طریق": 812,
      "عارض": 813,
      "عزیز": 814,
      "جگر": 815,
      "خدای": 816,
      "خلق": 817,
      "ران": 818,
      "ضا": 819,
      "وف": 820,
      "گشا": 821,
      "گناه": 822,
      "امان": 823,
      "امروز": 824,
      "دون": 825,
      "شین": 826,
      "سیه": 827,
      "بازی": 828,
      "فیض": 829,
      "زهد": 830,
      "پریشان": 831,
      "هجران": 832,
      "پادشاه": 833,
      "آرد": 834,
      "بسوخت": 835,
      "خان": 836,
      "دایی": 837,
      "زنم": 838,
      "شوی": 839,
      "صبو": 840,
      "فه": 841,
      "وق": 842,
      "چاره": 843,
      "ستم": 844,
      "بهشت": 845,
      "گردان": 846,
      "نیاز": 847,
      "دیدم": 848,
      "ادت": 849,
      "کاری": 850,
      "جامی": 851,
      "مله": 852,
      "کرشمه": 853,
      "عاشقان": 854,
      "گشای": 855,
      "سلطان": 856,
      "خدمت": 857,
      "بای": 858,
      "بحر": 859,
      "تح": 860,
      "حو": 861,
      "حرم": 862,
      "خاست": 863,
      "خسته": 864,
      "شکن": 865,
      "شرم": 866,
      "طبی": 867,
      "غزل": 868,
      "غیب": 869,
      "فرد": 870,
      "قه": 871,
      "موی": 872,
      "مشو": 873,
      "هنو": 874,
      "پو": 875,
      "گهی": 876,
      "اران": 877,
      "ندا": 878,
      "نده": 879,
      "خوبان": 880,
      "بیر": 881,
      "دیر": 882,
      "وین": 883,
      "افشان": 884,
      "ریا": 885,
      "کنار": 886,
      "شیر": 887,
      "گونه": 888,
      "پیاله": 889,
      "مدام": 890,
      "معه": 891,
      "خیز": 892,
      "بانگ": 893,
      "نقد": 894,
      "گویی": 895,
      "فیق": 896,
      "علم": 897,
      "خطا": 898,
      "کلک": 899,
      "غریب": 900,
      "دشمن": 901,
      "نافه": 902,
      "اس": 903,
      "ببر": 904,
      "حد": 905,
      "خص": 906,
      "سفر": 907,
      "طی": 908,
      "طبع": 909,
      "عش": 910,
      "مذ": 911,
      "مرو": 912,
      "مال": 913,
      "نشد": 914,
      "نرود": 915,
      "هنر": 916,
      "گدا": 917,
      "یع": 918,
      "برگ": 919,
      "سرم": 920,
      "نها": 921,
      "دانست": 922,
      "روزگار": 923,
      "کیست": 924,
      "هوس": 925,
      "بلا": 926,
      "نامه": 927,
      "مقام": 928,
      "فریاد": 929,
      "بعد": 930,
      "خنده": 931,
      "مژده": 932,
      "غلام": 933,
      "دعای": 934,
      "هنوز": 935,
      "آست": 936,
      "آلو": 937,
      "بنی": 938,
      "حیر": 939,
      "حکم": 940,
      "سرا": 941,
      "شبی": 942,
      "عشو": 943,
      "غصه": 944,
      "نصی": 945,
      "پنهان": 946,
      "ارغ": 947,
      "برفت": 948,
      "راست": 949,
      "گرم": 950,
      "گره": 951,
      "همان": 952,
      "لبت": 953,
      "بازآید": 954,
      "کوش": 955,
      "ابرو": 956,
      "نفس": 957,
      "شنید": 958,
      "تازه": 959,
      "آلوده": 960,
      "عشوه": 961,
      "آس": 962,
      "بکند": 963,
      "باری": 964,
      "بزم": 965,
      "سع": 966,
      "شده": 967,
      "ضه": 968,
      "طاق": 969,
      "فض": 970,
      "لاف": 971,
      "مخور": 972,
      "نخواهد": 973,
      "وجود": 974,
      "یت": 975,
      "خواست": 976,
      "توانی": 977,
      "منی": 978,
      "بیند": 979,
      "دلا": 980,
      "غمت": 981,
      "لیکن": 982,
      "کردی": 983,
      "گوید": 984,
      "افتاده": 985,
      "گردد": 986,
      "صومعه": 987,
      "یعنی": 988,
      "آصف": 989,
      "اسر": 990,
      "تما": 991,
      "جوان": 992,
      "حیا": 993,
      "خضر": 994,
      "دانه": 995,
      "زو": 996,
      "ظل": 997,
      "عشر": 998,
      "فرم": 999,
      "فرخ": 1000,
      "قا": 1001,
      "لا": 1002,
      "نبرد": 1003,
      "وگر": 1004,
      "گز": 1005,
      "ازم": 1006,
      "میل": 1007,
      "رون": 1008,
      "روشن": 1009,
      "توی": 1010,
      "توام": 1011,
      "بیرون": 1012,
      "دیگر": 1013,
      "سرت": 1014,
      "همچون": 1015,
      "چشمم": 1016,
      "بوسه": 1017,
      "رقیب": 1018,
      "گیسوی": 1019,
      "جامه": 1020,
      "بندگی": 1021,
      "هات": 1022,
      "اعظ": 1023,
      "زمانه": 1024,
      "بشنو": 1025,
      "نشین": 1026,
      "آمده": 1027,
      "اندیشه": 1028,
      "اسرار": 1029,
      "اکنون": 1030,
      "جمله": 1031,
      "حج": 1032,
      "حور": 1033,
      "خرد": 1034,
      "خرم": 1035,
      "رنج": 1036,
      "سد": 1037,
      "سار": 1038,
      "طای": 1039,
      "نع": 1040,
      "پند": 1041,
      "دریا": 1042,
      "برخاست": 1043,
      "وید": 1044,
      "شتر": 1045,
      "گفته": 1046,
      "پیو": 1047,
      "زلفت": 1048,
      "رقص": 1049,
      "نقاب": 1050,
      "رسم": 1051,
      "خرمن": 1052,
      "شادی": 1053,
      "حاصل": 1054,
      "پرور": 1055,
      "درویش": 1056,
      "محتسب": 1057,
      "عشرت": 1058,
      "بشد": 1059,
      "تل": 1060,
      "تخت": 1061,
      "زدم": 1062,
      "سمن": 1063,
      "شمی": 1064,
      "قلب": 1065,
      "قصد": 1066,
      "مث": 1067,
      "مای": 1068,
      "نکند": 1069,
      "نشود": 1070,
      "نرسد": 1071,
      "هان": 1072,
      "چاک": 1073,
      "کمر": 1074,
      "گدای": 1075,
      "بهتر": 1076,
      "گردون": 1077,
      "دلق": 1078,
      "رید": 1079,
      "سیل": 1080,
      "نگاه": 1081,
      "ابد": 1082,
      "چشمه": 1083,
      "هوا": 1084,
      "کنید": 1085,
      "شرح": 1086,
      "خویشت": 1087,
      "هزاران": 1088,
      "گرفته": 1089,
      "کلاه": 1090,
      "پروانه": 1091,
      "گریه": 1092,
      "طریقت": 1093,
      "آمدی": 1094,
      "صورت": 1095,
      "سلیمان": 1096,
      "عشاق": 1097,
      "آسمان": 1098,
      "آف": 1099,
      "بشک": 1100,
      "ثر": 1101,
      "خار": 1102,
      "دفت": 1103,
      "سبی": 1104,
      "سانه": 1105,
      "شام": 1106,
      "عظ": 1107,
      "عف": 1108,
      "فدای": 1109,
      "قامت": 1110,
      "چی": 1111,
      "ایمن": 1112,
      "میده": 1113,
      "خوبی": 1114,
      "گرت": 1115,
      "فتنه": 1116,
      "دلدار": 1117,
      "افسو": 1118,
      "سرای": 1119,
      "نهاد": 1120,
      "هرگز": 1121,
      "یاری": 1122,
      "مدعی": 1123,
      "یافت": 1124,
      "بستان": 1125,
      "قرار": 1126,
      "قول": 1127,
      "حریفان": 1128,
      "خندان": 1129,
      "غیرت": 1130,
      "رحمت": 1131,
      "طالع": 1132,
      "دیوانه": 1133,
      "نصیحت": 1134,
      "دفتر": 1135,
      "آبی": 1136,
      "آور": 1137,
      "تد": 1138,
      "جفا": 1139,
      "دف": 1140,
      "رض": 1141,
      "رفیق": 1142,
      "سری": 1143,
      "شع": 1144,
      "صرا": 1145,
      "صید": 1146,
      "عمل": 1147,
      "غان": 1148,
      "مون": 1149,
      "مگیر": 1150,
      "هند": 1151,
      "هفت": 1152,
      "وا": 1153,
      "وت": 1154,
      "وال": 1155,
      "پوش": 1156,
      "کشید": 1157,
      "کشتی": 1158,
      "گدایی": 1159,
      "انگی": 1160,
      "میرم": 1161,
      "بریم": 1162,
      "باشم": 1163,
      "دلت": 1164,
      "دلش": 1165,
      "افل": 1166,
      "نمود": 1167,
      "کیمی": 1168,
      "زلفش": 1169,
      "دوستان": 1170,
      "محراب": 1171,
      "نظم": 1172,
      "گذار": 1173,
      "صلاح": 1174,
      "بخشد": 1175,
      "آستان": 1176,
      "آشنا": 1177,
      "اط": 1178,
      "بماند": 1179,
      "بگشای": 1180,
      "جایی": 1181,
      "جلال": 1182,
      "جناب": 1183,
      "دن": 1184,
      "زهر": 1185,
      "زهی": 1186,
      "سما": 1187,
      "عرو": 1188,
      "عین": 1189,
      "علی": 1190,
      "عزم": 1191,
      "قطره": 1192,
      "مقص": 1193,
      "نخ": 1194,
      "نگر": 1195,
      "نکنی": 1196,
      "هب": 1197,
      "چگونه": 1198,
      "کرا": 1199,
      "کاف": 1200,
      "گم": 1201,
      "گنه": 1202,
      "ایتی": 1203,
      "ارزد": 1204,
      "برق": 1205,
      "منم": 1206,
      "الا": 1207,
      "بیش": 1208,
      "کنان": 1209,
      "نهد": 1210,
      "شکایت": 1211,
      "گلشن": 1212,
      "داغ": 1213,
      "گون": 1214,
      "آیین": 1215,
      "رویت": 1216,
      "مرح": 1217,
      "نماز": 1218,
      "ملامت": 1219,
      "ترسم": 1220,
      "نامی": 1221,
      "خیل": 1222,
      "لطی": 1223,
      "محرم": 1224,
      "گذری": 1225,
      "سنبل": 1226,
      "دوران": 1227,
      "مشکل": 1228,
      "سودای": 1229,
      "ندارم": 1230,
      "بیمار": 1231,
      "آیینه": 1232,
      "پیمانه": 1233,
      "طبیب": 1234,
      "مذهب": 1235,
      "حیات": 1236,
      "خویشتن": 1237,
      "تدبیر": 1238,
      "آغ": 1239,
      "ثار": 1240,
      "جاه": 1241,
      "حضر": 1242,
      "حسرت": 1243,
      "دود": 1244,
      "ذکر": 1245,
      "زوی": 1246,
      "زمین": 1247,
      "عنان": 1248,
      "قف": 1249,
      "قضا": 1250,
      "مصل": 1251,
      "همن": 1252,
      "واعظ": 1253,
      "چاه": 1254,
      "کاندر": 1255,
      "درس": 1256,
      "درمان": 1257,
      "درون": 1258,
      "برای": 1259,
      "منظ": 1260,
      "دهر": 1261,
      "دهند": 1262,
      "الح": 1263,
      "کنج": 1264,
      "ادب": 1265,
      "نهاده": 1266,
      "اور": 1267,
      "گلی": 1268,
      "گلستان": 1269,
      "داده": 1270,
      "رهی": 1271,
      "دستم": 1272,
      "بازم": 1273,
      "بازار": 1274,
      "دانش": 1275,
      "روزه": 1276,
      "مدد": 1277,
      "نقطه": 1278,
      "خاکی": 1279,
      "نظری": 1280,
      "دادند": 1281,
      "خمار": 1282,
      "فروغ": 1283,
      "سلام": 1284,
      "کمال": 1285,
      "اتم": 1286,
      "سبز": 1287,
      "کشیده": 1288,
      "درویشان": 1289,
      "عمری": 1290,
      "عنبر": 1291,
      "سپهر": 1292,
      "عاقبت": 1293,
      "نداشت": 1294,
      "خصم": 1295,
      "بنیاد": 1296,
      "طایر": 1297,
      "صراحی": 1298,
      "آدم": 1299,
      "آمو": 1300,
      "اص": 1301,
      "امن": 1302,
      "ببست": 1303,
      "حض": 1304,
      "رز": 1305,
      "رای": 1306,
      "زدی": 1307,
      "زنج": 1308,
      "سز": 1309,
      "سخت": 1310,
      "شای": 1311,
      "طاعت": 1312,
      "غبار": 1313,
      "فال": 1314,
      "فکن": 1315,
      "قبا": 1316,
      "قند": 1317,
      "مده": 1318,
      "مبین": 1319,
      "نماند": 1320,
      "وری": 1321,
      "پا": 1322,
      "پار": 1323,
      "کشت": 1324,
      "کشته": 1325,
      "انت": 1326,
      "میر": 1327,
      "برم": 1328,
      "خوری": 1329,
      "خواند": 1330,
      "رور": 1331,
      "دهم": 1332,
      "اهر": 1333,
      "چوگان": 1334,
      "نهار": 1335,
      "شیراز": 1336,
      "داران": 1337,
      "نگوی": 1338,
      "جانا": 1339,
      "گله": 1340,
      "نون": 1341,
      "نواز": 1342,
      "پرست": 1343,
      "بول": 1344,
      "محبت": 1345,
      "فرص": 1346,
      "لوح": 1347,
      "فروشان": 1348,
      "شاخ": 1349,
      "زمانی": 1350,
      "دریاب": 1351,
      "چندان": 1352,
      "زنده": 1353,
      "کشیم": 1354,
      "فراغ": 1355,
      "سوخته": 1356,
      "فریب": 1357,
      "نفسی": 1358,
      "سلطنت": 1359,
      "انداختی": 1360,
      "سعادت": 1361,
      "مقصود": 1362,
      "حضرت": 1363,
      "زنجیر": 1364,
      "آت": 1365,
      "اغ": 1366,
      "بگ": 1367,
      "بگویم": 1368,
      "جد": 1369,
      "جاد": 1370,
      "جمع": 1371,
      "حل": 1372,
      "ذره": 1373,
      "رسی": 1374,
      "سله": 1375,
      "عاف": 1376,
      "عکس": 1377,
      "غنی": 1378,
      "فشه": 1379,
      "فغان": 1380,
      "قان": 1381,
      "قار": 1382,
      "قاف": 1383,
      "لای": 1384,
      "لشکر": 1385,
      "مص": 1386,
      "مباش": 1387,
      "مفروش": 1388,
      "نثار": 1389,
      "هل": 1390,
      "وض": 1391,
      "وار": 1392,
      "پذ": 1393,
      "کت": 1394,
      "کدام": 1395,
      "یمن": 1396,
      "برده": 1397,
      "براف": 1398,
      "برود": 1399,
      "برخی": 1400,
      "نداد": 1401,
      "خوشتر": 1402,
      "بیان": 1403,
      "بیاب": 1404,
      "دلبری": 1405,
      "دیار": 1406,
      "دیدار": 1407,
      "آنجا": 1408,
      "سرشک": 1409,
      "سرگشته": 1410,
      "اولی": 1411,
      "نگاری": 1412,
      "گفتی": 1413,
      "لبش": 1414,
      "پیک": 1415,
      "نوشت": 1416,
      "نماید": 1417,
      "معنی": 1418,
      "بوس": 1419,
      "عید": 1420,
      "بتی": 1421,
      "بتان": 1422,
      "احوال": 1423,
      "رسان": 1424,
      "بنفشه": 1425,
      "عاشقی": 1426,
      "دایره": 1427,
      "شرط": 1428,
      "سلسله": 1429,
      "کمتر": 1430,
      "قصر": 1431,
      "هستی": 1432,
      "جوانی": 1433,
      "زنخ": 1434,
      "رنگین": 1435,
      "همیشه": 1436,
      "مشتا": 1437,
      "آرزو": 1438,
      "مژگان": 1439,
      "اختیار": 1440,
      "آزاد": 1441,
      "نسرین": 1442,
      "پوشان": 1443,
      "تویی": 1444,
      "مایه": 1445,
      "حضور": 1446,
      "عافیت": 1447,
      "بیابان": 1448,
      "آرم": 1449,
      "آسان": 1450,
      "بدر": 1451,
      "بگردان": 1452,
      "تمن": 1453,
      "تکی": 1454,
      "جرم": 1455,
      "حقی": 1456,
      "حرام": 1457,
      "خداو": 1458,
      "داست": 1459,
      "دخت": 1460,
      "رمیده": 1461,
      "سمت": 1462,
      "ساله": 1463,
      "شست": 1464,
      "غی": 1465,
      "غرق": 1466,
      "فق": 1467,
      "قبای": 1468,
      "مبر": 1469,
      "مبا": 1470,
      "مخم": 1471,
      "وصف": 1472,
      "پناه": 1473,
      "کب": 1474,
      "یوس": 1475,
      "دردی": 1476,
      "باقی": 1477,
      "ندید": 1478,
      "راهی": 1479,
      "خوب": 1480,
      "منه": 1481,
      "بیست": 1482,
      "بیام": 1483,
      "فتی": 1484,
      "افسانه": 1485,
      "شیم": 1486,
      "همدم": 1487,
      "یرم": 1488,
      "شکسته": 1489,
      "جانی": 1490,
      "پرتو": 1491,
      "چشمت": 1492,
      "سوسن": 1493,
      "معام": 1494,
      "شوخ": 1495,
      "شوم": 1496,
      "رقم": 1497,
      "کوت": 1498,
      "اریست": 1499,
      "گویند": 1500,
      "هوش": 1501,
      "خموش": 1502,
      "مجال": 1503,
      "بنگر": 1504,
      "کمند": 1505,
      "گیرند": 1506,
      "موسم": 1507,
      "گاهی": 1508,
      "آواز": 1509,
      "جمشید": 1510,
      "حیوان": 1511,
      "مسند": 1512,
      "افتادست": 1513,
      "دیدن": 1514,
      "بروم": 1515,
      "طوفان": 1516,
      "اختر": 1517,
      "عذر": 1518,
      "عاقل": 1519,
      "خجل": 1520,
      "دنیا": 1521,
      "صبوح": 1522,
      "فردا": 1523,
      "نهادیم": 1524,
      "آستین": 1525,
      "وگرنه": 1526,
      "چیزی": 1527,
      "مونس": 1528,
      "سماع": 1529,
      "مصلحت": 1530,
      "تکیه": 1531,
      "حقیقت": 1532,
      "یوسف": 1533,
      "آمی": 1534,
      "آشو": 1535,
      "آشن": 1536,
      "ادر": 1537,
      "بگوی": 1538,
      "بزن": 1539,
      "بخوان": 1540,
      "بنوش": 1541,
      "تع": 1542,
      "تنها": 1543,
      "جنگ": 1544,
      "حس": 1545,
      "خرو": 1546,
      "خالی": 1547,
      "دما": 1548,
      "رع": 1549,
      "زنهار": 1550,
      "سهی": 1551,
      "سجا": 1552,
      "شاید": 1553,
      "شباب": 1554,
      "ظه": 1555,
      "عود": 1556,
      "غافل": 1557,
      "فره": 1558,
      "فکند": 1559,
      "قبول": 1560,
      "مسی": 1561,
      "مگو": 1562,
      "مور": 1563,
      "مایی": 1564,
      "مفل": 1565,
      "مکان": 1566,
      "نص": 1567,
      "نوی": 1568,
      "ناو": 1569,
      "نمان": 1570,
      "نکنیم": 1571,
      "هشی": 1572,
      "هلال": 1573,
      "ورد": 1574,
      "چک": 1575,
      "چار": 1576,
      "چشمی": 1577,
      "کشان": 1578,
      "کریم": 1579,
      "یاق": 1580,
      "یکی": 1581,
      "ارباب": 1582,
      "درو": 1583,
      "درآید": 1584,
      "روضه": 1585,
      "بید": 1586,
      "فتح": 1587,
      "دیدی": 1588,
      "دیوان": 1589,
      "آنم": 1590,
      "مات": 1591,
      "نهانی": 1592,
      "دوا": 1593,
      "شمت": 1594,
      "شمار": 1595,
      "شمشاد": 1596,
      "بودن": 1597,
      "گلاب": 1598,
      "خوشا": 1599,
      "دانم": 1600,
      "معذ": 1601,
      "رخش": 1602,
      "شاهی": 1603,
      "ملول": 1604,
      "مستان": 1605,
      "کون": 1606,
      "کوه": 1607,
      "بارک": 1608,
      "تشنه": 1609,
      "بساز": 1610,
      "بنما": 1611,
      "بنشان": 1612,
      "ماهی": 1613,
      "دایم": 1614,
      "حالی": 1615,
      "گیرم": 1616,
      "گردش": 1617,
      "عالی": 1618,
      "خرامان": 1619,
      "تمام": 1620,
      "اندازد": 1621,
      "حکمت": 1622,
      "طلبیم": 1623,
      "پادشه": 1624,
      "خلد": 1625,
      "طوطی": 1626,
      "تیره": 1627,
      "طرفه": 1628,
      "صافی": 1629,
      "عذار": 1630,
      "ندانم": 1631,
      "فرستمت": 1632,
      "صبوحی": 1633,
      "آستانه": 1634,
      "فضل": 1635,
      "هندوی": 1636,
      "زهره": 1637,
      "عروس": 1638,
      "فرصت": 1639,
      "غنیمت": 1640,
      "دختر": 1641,
      "معامله": 1642,
      "سجاده": 1643,
      "یاقوت": 1644,
      "آش": 1645,
      "آرام": 1646,
      "اسیر": 1647,
      "بنه": 1648,
      "بانی": 1649,
      "ببینم": 1650,
      "بگشا": 1651,
      "تج": 1652,
      "تاری": 1653,
      "جف": 1654,
      "حشمت": 1655,
      "خاتم": 1656,
      "ذر": 1657,
      "زود": 1658,
      "زانه": 1659,
      "زخم": 1660,
      "سروی": 1661,
      "سحری": 1662,
      "شدی": 1663,
      "شور": 1664,
      "صفت": 1665,
      "عد": 1666,
      "عز": 1667,
      "عرا": 1668,
      "عیار": 1669,
      "فرق": 1670,
      "فقر": 1671,
      "قاه": 1672,
      "قسمت": 1673,
      "لله": 1674,
      "مزن": 1675,
      "نز": 1676,
      "نکو": 1677,
      "هن": 1678,
      "هاست": 1679,
      "واق": 1680,
      "وادی": 1681,
      "پرد": 1682,
      "پسر": 1683,
      "کمی": 1684,
      "کاو": 1685,
      "کله": 1686,
      "کمین": 1687,
      "گهر": 1688,
      "انس": 1689,
      "ایل": 1690,
      "ایست": 1691,
      "ایزد": 1692,
      "ایوان": 1693,
      "ارد": 1694,
      "درش": 1695,
      "دردم": 1696,
      "درخت": 1697,
      "درکش": 1698,
      "درآیی": 1699,
      "برخیز": 1700,
      "بام": 1701,
      "باک": 1702,
      "راح": 1703,
      "خورم": 1704,
      "خونین": 1705,
      "تواند": 1706,
      "بیدار": 1707,
      "فتاد": 1708,
      "نیام": 1709,
      "دلکش": 1710,
      "ریده": 1711,
      "کندر": 1712,
      "اداری": 1713,
      "شمشیر": 1714,
      "همای": 1715,
      "نگفت": 1716,
      "جانم": 1717,
      "رها": 1718,
      "پیدا": 1719,
      "پیامی": 1720,
      "بازآ": 1721,
      "یارم": 1722,
      "آیا": 1723,
      "جاود": 1724,
      "نقشی": 1725,
      "گذشت": 1726,
      "باران": 1727,
      "خورده": 1728,
      "قدس": 1729,
      "احت": 1730,
      "حالیا": 1731,
      "بحث": 1732,
      "نازک": 1733,
      "حیف": 1734,
      "خرابی": 1735,
      "صبحدم": 1736,
      "ولیکن": 1737,
      "جوش": 1738,
      "سحرگه": 1739,
      "عرصه": 1740,
      "سهل": 1741,
      "غرض": 1742,
      "مشام": 1743,
      "نشینان": 1744,
      "حریف": 1745,
      "حریم": 1746,
      "بگذر": 1747,
      "بگذشت": 1748,
      "مژه": 1749,
      "گشاید": 1750,
      "طلبی": 1751,
      "عنایت": 1752,
      "ندیدم": 1753,
      "بسیار": 1754,
      "آرید": 1755,
      "کاسه": 1756,
      "فرستاد": 1757,
      "خدایا": 1758,
      "وفای": 1759,
      "حیرت": 1760,
      "ارغوان": 1761,
      "تماشا": 1762,
      "آفرین": 1763,
      "عفو": 1764,
      "کرامت": 1765,
      "انتظ": 1766,
      "زنخدان": 1767,
      "دماغ": 1768,
      "ناوک": 1769,
      "چکد": 1770,
      "معذور": 1771,
      "آشی": 1772,
      "آباد": 1773,
      "آگه": 1774,
      "آگهی": 1775,
      "اثر": 1776,
      "بسو": 1777,
      "بخواه": 1778,
      "بجز": 1779,
      "تط": 1780,
      "تف": 1781,
      "تقو": 1782,
      "تسبی": 1783,
      "جبین": 1784,
      "حسود": 1785,
      "حلال": 1786,
      "ذوق": 1787,
      "رشک": 1788,
      "زور": 1789,
      "زرق": 1790,
      "زون": 1791,
      "زنان": 1792,
      "سف": 1793,
      "سپر": 1794,
      "سعی": 1795,
      "سامان": 1796,
      "شنو": 1797,
      "صفا": 1798,
      "ضی": 1799,
      "طع": 1800,
      "ظفر": 1801,
      "عبه": 1802,
      "غز": 1803,
      "فسو": 1804,
      "فکنم": 1805,
      "مدر": 1806,
      "مود": 1807,
      "مصر": 1808,
      "نکه": 1809,
      "ننو": 1810,
      "نکنم": 1811,
      "نگران": 1812,
      "وجه": 1813,
      "پشی": 1814,
      "کاش": 1815,
      "کعبه": 1816,
      "گانی": 1817,
      "یاب": 1818,
      "اندو": 1819,
      "بهای": 1820,
      "درم": 1821,
      "برید": 1822,
      "راف": 1823,
      "خوانی": 1824,
      "روا": 1825,
      "منش": 1826,
      "منصور": 1827,
      "الم": 1828,
      "الدین": 1829,
      "بیاور": 1830,
      "دلان": 1831,
      "دیست": 1832,
      "افسر": 1833,
      "افروز": 1834,
      "ریش": 1835,
      "ادث": 1836,
      "نهادم": 1837,
      "شینم": 1838,
      "دارند": 1839,
      "بودم": 1840,
      "دمد": 1841,
      "ختن": 1842,
      "شکست": 1843,
      "شکار": 1844,
      "گلبانگ": 1845,
      "دامی": 1846,
      "گفتن": 1847,
      "گفتیم": 1848,
      "اقی": 1849,
      "نوا": 1850,
      "دستی": 1851,
      "پرسید": 1852,
      "پرگار": 1853,
      "عشقبازی": 1854,
      "معرفت": 1855,
      "هیهات": 1856,
      "رقی": 1857,
      "گیتی": 1858,
      "زدند": 1859,
      "ناتوان": 1860,
      "کوته": 1861,
      "صدق": 1862,
      "فراز": 1863,
      "فرما": 1864,
      "فرمان": 1865,
      "بندگان": 1866,
      "زیان": 1867,
      "سرود": 1868,
      "سروش": 1869,
      "بسا": 1870,
      "مجنون": 1871,
      "پیرانه": 1872,
      "بخشی": 1873,
      "سلامی": 1874,
      "شکرانه": 1875,
      "قیق": 1876,
      "قیامت": 1877,
      "گردن": 1878,
      "موج": 1879,
      "مهربان": 1880,
      "چندین": 1881,
      "گفتمش": 1882,
      "آهنگ": 1883,
      "بشکن": 1884,
      "عرش": 1885,
      "عرضه": 1886,
      "مقیم": 1887,
      "همین": 1888,
      "قوت": 1889,
      "گریان": 1890,
      "نشیند": 1891,
      "الیه": 1892,
      "اندازیم": 1893,
      "نشست": 1894,
      "بخشش": 1895,
      "بایدش": 1896,
      "طلعت": 1897,
      "خلاص": 1898,
      "خلوتی": 1899,
      "بالای": 1900,
      "گشاده": 1901,
      "خانقاه": 1902,
      "فردوس": 1903,
      "مروت": 1904,
      "حیران": 1905,
      "حجاب": 1906,
      "تلخ": 1907,
      "افسوس": 1908,
      "میرمت": 1909,
      "کیمیای": 1910,
      "بگشایند": 1911,
      "منظر": 1912,
      "وضع": 1913,
      "برخیزم": 1914,
      "مخمور": 1915,
      "کوتاه": 1916,
      "آشوب": 1917,
      "رعنا": 1918,
      "فرهاد": 1919,
      "نماندست": 1920,
      "نیامد": 1921,
      "جاودان": 1922,
      "تقوا": 1923,
      "تسبیح": 1924,
      "سفله": 1925,
      "آل": 1926,
      "آسای": 1927,
      "آدمی": 1928,
      "بط": 1929,
      "بم": 1930,
      "بتوان": 1931,
      "بکش": 1932,
      "بگرفت": 1933,
      "بکنیم": 1934,
      "تار": 1935,
      "تبه": 1936,
      "تند": 1937,
      "حم": 1938,
      "حه": 1939,
      "حبی": 1940,
      "حکی": 1941,
      "ذی": 1942,
      "رباب": 1943,
      "زنی": 1944,
      "زاری": 1945,
      "سح": 1946,
      "ساع": 1947,
      "شرا": 1948,
      "شجا": 1949,
      "صع": 1950,
      "صن": 1951,
      "صنو": 1952,
      "ضای": 1953,
      "ضعی": 1954,
      "طن": 1955,
      "ظی": 1956,
      "عط": 1957,
      "عند": 1958,
      "عام": 1959,
      "عطر": 1960,
      "عرق": 1961,
      "عتاب": 1962,
      "غش": 1963,
      "غمی": 1964,
      "غیا": 1965,
      "غلط": 1966,
      "غایت": 1967,
      "غرور": 1968,
      "غالیه": 1969,
      "فنا": 1970,
      "فارغ": 1971,
      "قب": 1972,
      "قال": 1973,
      "مط": 1974,
      "مری": 1975,
      "مگوی": 1976,
      "نای": 1977,
      "نسی": 1978,
      "ننگ": 1979,
      "نغم": 1980,
      "نرفت": 1981,
      "نبد": 1982,
      "نفرستاد": 1983,
      "وزد": 1984,
      "وزیر": 1985,
      "پرهی": 1986,
      "کفر": 1987,
      "گرا": 1988,
      "گرو": 1989,
      "گانه": 1990,
      "انج": 1991,
      "بهشتی": 1992,
      "درگه": 1993,
      "میانه": 1994,
      "میوه": 1995,
      "برین": 1996,
      "باور": 1997,
      "باتی": 1998,
      "دهن": 1999,
      "بیگانه": 2000,
      "امل": 2001,
      "فتد": 2002,
      "دیری": 2003,
      "دینم": 2004,
      "افق": 2005,
      "افکند": 2006,
      "اینم": 2007,
      "آنچه": 2008,
      "ماج": 2009,
      "شدن": 2010,
      "همره": 2011,
      "نگذ": 2012,
      "نگی": 2013,
      "ختم": 2014,
      "شکرخ": 2015,
      "جانب": 2016,
      "ورق": 2017,
      "رهگذر": 2018,
      "لبم": 2019,
      "پیغ": 2020,
      "پیام": 2021,
      "ابل": 2022,
      "اکی": 2023,
      "بازآمد": 2024,
      "بازرسان": 2025,
      "پرسی": 2026,
      "رویم": 2027,
      "عشقت": 2028,
      "کارم": 2029,
      "مددی": 2030,
      "سوار": 2031,
      "ترکان": 2032,
      "عیان": 2033,
      "عیسی": 2034,
      "مستانه": 2035,
      "کران": 2036,
      "کردیم": 2037,
      "کوثر": 2038,
      "گذاری": 2039,
      "زید": 2040,
      "علاج": 2041,
      "سخنی": 2042,
      "صباح": 2043,
      "مجوی": 2044,
      "مجمو": 2045,
      "بنشین": 2046,
      "بویی": 2047,
      "شرب": 2048,
      "شرف": 2049,
      "حالت": 2050,
      "صوت": 2051,
      "عالمی": 2052,
      "گشتم": 2053,
      "نازنی": 2054,
      "خرام": 2055,
      "بشوی": 2056,
      "بشارت": 2057,
      "سبب": 2058,
      "سبک": 2059,
      "قلم": 2060,
      "صحرا": 2061,
      "قرآن": 2062,
      "عرض": 2063,
      "زیرک": 2064,
      "مغب": 2065,
      "قوام": 2066,
      "نشینی": 2067,
      "آرزوی": 2068,
      "بگذرد": 2069,
      "نشنی": 2070,
      "سلطانی": 2071,
      "سنگین": 2072,
      "سنگنک": 2073,
      "صرف": 2074,
      "بالا": 2075,
      "طوبی": 2076,
      "صوفیان": 2077,
      "طهارت": 2078,
      "داور": 2079,
      "پسند": 2080,
      "دنیی": 2081,
      "پریشانی": 2082,
      "پیوسته": 2083,
      "آفاق": 2084,
      "بشکست": 2085,
      "افسون": 2086,
      "رضوان": 2087,
      "شعبده": 2088,
      "نخست": 2089,
      "قارون": 2090,
      "مبادا": 2091,
      "انتظار": 2092,
      "تطاول": 2093,
      "مدرسه": 2094,
      "آسایش": 2095,
      "شجاع": 2096,
      "غیاث": 2097,
      "نسیمی": 2098,
      "نغمه": 2099,
      "بغ": 2100,
      "بگر": 2101,
      "بزر": 2102,
      "بپرس": 2103,
      "ببری": 2104,
      "بسوز": 2105,
      "ببینی": 2106,
      "بگشاید": 2107,
      "تنم": 2108,
      "ثانی": 2109,
      "جن": 2110,
      "جی": 2111,
      "جدا": 2112,
      "حظه": 2113,
      "خری": 2114,
      "خطر": 2115,
      "خامی": 2116,
      "خداد": 2117,
      "خزان": 2118,
      "خاره": 2119,
      "رشته": 2120,
      "زرد": 2121,
      "زانی": 2122,
      "سق": 2123,
      "سام": 2124,
      "سبو": 2125,
      "سفی": 2126,
      "شح": 2127,
      "صدر": 2128,
      "صنع": 2129,
      "ضاع": 2130,
      "ضمیر": 2131,
      "طام": 2132,
      "غرا": 2133,
      "غرقه": 2134,
      "غباری": 2135,
      "فهم": 2136,
      "قع": 2137,
      "قنا": 2138,
      "لان": 2139,
      "لحظه": 2140,
      "مکر": 2141,
      "مکش": 2142,
      "مسل": 2143,
      "مبارک": 2144,
      "ناک": 2145,
      "نبیند": 2146,
      "وح": 2147,
      "ودی": 2148,
      "وانی": 2149,
      "وطن": 2150,
      "وظی": 2151,
      "پنج": 2152,
      "پشمی": 2153,
      "کبر": 2154,
      "کمت": 2155,
      "گد": 2156,
      "گست": 2157,
      "گمان": 2158,
      "گزار": 2159,
      "گنبد": 2160,
      "انجام": 2161,
      "ستاره": 2162,
      "ایق": 2163,
      "ایان": 2164,
      "برآمد": 2165,
      "بربست": 2166,
      "بربط": 2167,
      "خوار": 2168,
      "رواست": 2169,
      "رونق": 2170,
      "توفیق": 2171,
      "گرش": 2172,
      "الغیاث": 2173,
      "بیت": 2174,
      "بیچاره": 2175,
      "امر": 2176,
      "امه": 2177,
      "امشب": 2178,
      "نیت": 2179,
      "استخوان": 2180,
      "ویر": 2181,
      "ریر": 2182,
      "ریست": 2183,
      "آنکه": 2184,
      "سرمست": 2185,
      "سرزن": 2186,
      "شیشه": 2187,
      "هرزه": 2188,
      "اوج": 2189,
      "شکند": 2190,
      "پیچ": 2191,
      "کردن": 2192,
      "ابت": 2193,
      "زلال": 2194,
      "دستان": 2195,
      "خوشش": 2196,
      "خوشدلی": 2197,
      "بازان": 2198,
      "بازآی": 2199,
      "دانا": 2200,
      "جهد": 2201,
      "جهانی": 2202,
      "لیل": 2203,
      "مرده": 2204,
      "کاران": 2205,
      "کارخانه": 2206,
      "نمای": 2207,
      "سوال": 2208,
      "سواد": 2209,
      "شوند": 2210,
      "ملالت": 2211,
      "بوستان": 2212,
      "تربت": 2213,
      "زدن": 2214,
      "دوستی": 2215,
      "محنت": 2216,
      "فرشته": 2217,
      "رفتم": 2218,
      "بندم": 2219,
      "هوایی": 2220,
      "امیدو": 2221,
      "صلح": 2222,
      "بینش": 2223,
      "فروخت": 2224,
      "فات": 2225,
      "فاش": 2226,
      "شرع": 2227,
      "سلمی": 2228,
      "لعلش": 2229,
      "کویت": 2230,
      "زندگی": 2231,
      "جوهر": 2232,
      "آهوی": 2233,
      "طلبد": 2234,
      "قلن": 2235,
      "قران": 2236,
      "مقدم": 2237,
      "صفای": 2238,
      "کشیدم": 2239,
      "اشارت": 2240,
      "سالوس": 2241,
      "قوم": 2242,
      "نشنا": 2243,
      "بخشند": 2244,
      "جویبار": 2245,
      "غلامی": 2246,
      "گشاد": 2247,
      "نگارم": 2248,
      "ندیده": 2249,
      "غریبان": 2250,
      "سیاهی": 2251,
      "کرمش": 2252,
      "داشتم": 2253,
      "رحم": 2254,
      "طالب": 2255,
      "تقدیر": 2256,
      "خجسته": 2257,
      "پادشاهی": 2258,
      "تحمل": 2259,
      "حواله": 2260,
      "دشمنان": 2261,
      "اسباب": 2262,
      "سفرکرده": 2263,
      "خواستم": 2264,
      "ظلمت": 2265,
      "فرخنده": 2266,
      "هاتف": 2267,
      "نعمت": 2268,
      "مثل": 2269,
      "گدایان": 2270,
      "انگیز": 2271,
      "اطراف": 2272,
      "کافر": 2273,
      "مرحله": 2274,
      "لطیف": 2275,
      "همنشین": 2276,
      "عمریست": 2277,
      "آموخت": 2278,
      "اهرمن": 2279,
      "نگویم": 2280,
      "جادوی": 2281,
      "مصط": 2282,
      "خروش": 2283,
      "هشیار": 2284,
      "عراق": 2285,
      "آشیان": 2286,
      "رقیبان": 2287,
      "آلود": 2288,
      "شرابی": 2289,
      "عندلی": 2290,
      "دیرینه": 2291,
      "قناعت": 2292,
      "وظیفه": 2293,
      "پشمینه": 2294,
      "آنی": 2295,
      "آوی": 2296,
      "آزار": 2297,
      "آگاه": 2298,
      "اشت": 2299,
      "اشر": 2300,
      "بخور": 2301,
      "بگیر": 2302,
      "بباید": 2303,
      "بکشد": 2304,
      "بقا": 2305,
      "بپوشان": 2306,
      "تهی": 2307,
      "تخم": 2308,
      "تجر": 2309,
      "تقص": 2310,
      "تزوی": 2311,
      "جده": 2312,
      "جاست": 2313,
      "جیب": 2314,
      "جنت": 2315,
      "حمت": 2316,
      "حسب": 2317,
      "حباب": 2318,
      "خدایی": 2319,
      "خرید": 2320,
      "خسروی": 2321,
      "رغم": 2322,
      "زاد": 2323,
      "زحمت": 2324,
      "سست": 2325,
      "سهو": 2326,
      "ساعت": 2327,
      "سکندر": 2328,
      "شش": 2329,
      "شری": 2330,
      "شهی": 2331,
      "شتاب": 2332,
      "صب": 2333,
      "عق": 2334,
      "عدل": 2335,
      "غای": 2336,
      "غارت": 2337,
      "غول": 2338,
      "فز": 2339,
      "فار": 2340,
      "فانی": 2341,
      "فتوی": 2342,
      "فسانه": 2343,
      "قات": 2344,
      "قدیم": 2345,
      "لتی": 2346,
      "مخ": 2347,
      "مشا": 2348,
      "مرید": 2349,
      "مفتی": 2350,
      "نچ": 2351,
      "نبر": 2352,
      "نما": 2353,
      "نبست": 2354,
      "نخواهم": 2355,
      "نکردی": 2356,
      "نگردد": 2357,
      "نوید": 2358,
      "وع": 2359,
      "وشم": 2360,
      "وعظ": 2361,
      "پسته": 2362,
      "پنهانی": 2363,
      "چال": 2364,
      "کری": 2365,
      "گاری": 2366,
      "گزی": 2367,
      "یز": 2368,
      "انکار": 2369,
      "انفا": 2370,
      "ایمان": 2371,
      "ایشان": 2372,
      "دره": 2373,
      "درست": 2374,
      "درآی": 2375,
      "دربند": 2376,
      "درگاه": 2377,
      "میسر": 2378,
      "بروی": 2379,
      "بردم": 2380,
      "برسان": 2381,
      "برآرم": 2382,
      "ندانی": 2383,
      "نداری": 2384,
      "ندیم": 2385,
      "راحت": 2386,
      "خودم": 2387,
      "خوبت": 2388,
      "رواق": 2389,
      "گردی": 2390,
      "دهیم": 2391,
      "الط": 2392,
      "الست": 2393,
      "دیگری": 2394,
      "اهی": 2395,
      "ریز": 2396,
      "ریزد": 2397,
      "سرخوش": 2398,
      "نهفته": 2399,
      "دوز": 2400,
      "دوام": 2401,
      "دوتا": 2402,
      "شیدا": 2403,
      "سیب": 2404,
      "همتی": 2405,
      "تابی": 2406,
      "اوضاع": 2407,
      "شکل": 2408,
      "شکفت": 2409,
      "شکوه": 2410,
      "جانانه": 2411,
      "گلبن": 2412,
      "گلگون": 2413,
      "گوار": 2414,
      "گوشم": 2415,
      "پیری": 2416,
      "پیداست": 2417,
      "بادش": 2418,
      "ینم": 2419,
      "اکش": 2420,
      "نوح": 2421,
      "نوک": 2422,
      "نوای": 2423,
      "نوبهار": 2424,
      "دستار": 2425,
      "خوشه": 2426,
      "رموز": 2427,
      "غمش": 2428,
      "غماز": 2429,
      "دانند": 2430,
      "پرستی": 2431,
      "لیک": 2432,
      "لیلی": 2433,
      "رویان": 2434,
      "کارساز": 2435,
      "معما": 2436,
      "معاشر": 2437,
      "رخس": 2438,
      "رخسار": 2439,
      "شوخی": 2440,
      "شوکت": 2441,
      "شوریده": 2442,
      "شاهراه": 2443,
      "ملال": 2444,
      "بوسم": 2445,
      "ترانه": 2446,
      "گیری": 2447,
      "مستوری": 2448,
      "شهن": 2449,
      "شهسوار": 2450,
      "ناصح": 2451,
      "خیمه": 2452,
      "کسب": 2453,
      "گویمت": 2454,
      "تیز": 2455,
      "محروم": 2456,
      "محتاج": 2457,
      "محمود": 2458,
      "رفتن": 2459,
      "رفته": 2460,
      "بندی": 2461,
      "سروری": 2462,
      "حرف": 2463,
      "حرمان": 2464,
      "دادن": 2465,
      "مجل": 2466,
      "بنال": 2467,
      "بنشینم": 2468,
      "گهش": 2469,
      "دایت": 2470,
      "لعلت": 2471,
      "بدنام": 2472,
      "بدنامی": 2473,
      "دگران": 2474,
      "صواب": 2475,
      "حاشا": 2476,
      "خیالی": 2477,
      "قراری": 2478,
      "قرعه": 2479,
      "پایه": 2480,
      "پایان": 2481,
      "زنار": 2482,
      "سمند": 2483,
      "صفیر": 2484,
      "سودا": 2485,
      "مسجد": 2486,
      "مرغان": 2487,
      "زینم": 2488,
      "سالک": 2489,
      "شنود": 2490,
      "بلبلی": 2491,
      "بگذار": 2492,
      "بگذری": 2493,
      "سازد": 2494,
      "جویم": 2495,
      "وصله": 2496,
      "دلیل": 2497,
      "درویشی": 2498,
      "شنیده": 2499,
      "بیماری": 2500,
      "دعوی": 2501,
      "چینم": 2502,
      "فشاند": 2503,
      "ندانست": 2504,
      "تنعم": 2505,
      "داوری": 2506,
      "تقوی": 2507,
      "تقریر": 2508,
      "معشوقه": 2509,
      "محترم": 2510,
      "خانقه": 2511,
      "وقتی": 2512,
      "مویی": 2513,
      "پوشی": 2514,
      "تماشای": 2515,
      "قاضی": 2516,
      "اعظم": 2517,
      "پیوند": 2518,
      "مثال": 2519,
      "چاکر": 2520,
      "سبیل": 2521,
      "عظیم": 2522,
      "دفع": 2523,
      "انگیخت": 2524,
      "مرحبا": 2525,
      "لطیفه": 2526,
      "آغاز": 2527,
      "قفس": 2528,
      "جادو": 2529,
      "رسیده": 2530,
      "قافله": 2531,
      "هلالی": 2532,
      "پذیر": 2533,
      "مشتاق": 2534,
      "مشتاقان": 2535,
      "آمیز": 2536,
      "حساب": 2537,
      "نصیب": 2538,
      "آشفته": 2539,
      "تاریخ": 2540,
      "جفای": 2541,
      "عزت": 2542,
      "نزاع": 2543,
      "نکهت": 2544,
      "یابم": 2545,
      "صنوبر": 2546,
      "قبله": 2547,
      "پرهیز": 2548,
      "انجمن": 2549,
      "ماجرا": 2550,
      "پیغام": 2551,
      "شحنه": 2552,
      "طامات": 2553,
      "سرزنش": 2554,
      "مصطبه": 2555,
      "تجربه": 2556,
      "مشاطه": 2557,
      "انفاس": 2558,
      "آهی": 2559,
      "آرند": 2560,
      "ابی": 2561,
      "اوی": 2562,
      "اسا": 2563,
      "بکن": 2564,
      "بدار": 2565,
      "بنو": 2566,
      "بگیرد": 2567,
      "بگری": 2568,
      "بصر": 2569,
      "بخورد": 2570,
      "بکوش": 2571,
      "بنواز": 2572,
      "بفرما": 2573,
      "تب": 2574,
      "تنه": 2575,
      "جست": 2576,
      "جما": 2577,
      "حان": 2578,
      "حمله": 2579,
      "حذر": 2580,
      "حوصله": 2581,
      "خشید": 2582,
      "خزانه": 2583,
      "ذت": 2584,
      "رست": 2585,
      "رمی": 2586,
      "رفی": 2587,
      "رطل": 2588,
      "رضا": 2589,
      "زبر": 2590,
      "زیار": 2591,
      "زرین": 2592,
      "زاغ": 2593,
      "سحرم": 2594,
      "شبان": 2595,
      "شفا": 2596,
      "شخص": 2597,
      "صنم": 2598,
      "صنمی": 2599,
      "صمت": 2600,
      "ضعف": 2601,
      "عدو": 2602,
      "عنق": 2603,
      "عرب": 2604,
      "غا": 2605,
      "غو": 2606,
      "فدا": 2607,
      "قرب": 2608,
      "لر": 2609,
      "لع": 2610,
      "لحد": 2611,
      "لذت": 2612,
      "مظ": 2613,
      "مک": 2614,
      "مند": 2615,
      "مخت": 2616,
      "مره": 2617,
      "مبت": 2618,
      "مطلب": 2619,
      "مخوان": 2620,
      "نست": 2621,
      "نخو": 2622,
      "نال": 2623,
      "نجه": 2624,
      "نجا": 2625,
      "نسخ": 2626,
      "نذر": 2627,
      "هنگ": 2628,
      "هفته": 2629,
      "هدایت": 2630,
      "پخته": 2631,
      "چگل": 2632,
      "کای": 2633,
      "کبو": 2634,
      "کامی": 2635,
      "گند": 2636,
      "گمرا": 2637,
      "انگشت": 2638,
      "ایش": 2639,
      "ارزانی": 2640,
      "ازرق": 2641,
      "بها": 2642,
      "درت": 2643,
      "درده": 2644,
      "درخور": 2645,
      "مید": 2646,
      "میخو": 2647,
      "برن": 2648,
      "بران": 2649,
      "برند": 2650,
      "بردار": 2651,
      "برهم": 2652,
      "برابر": 2653,
      "برانداز": 2654,
      "برآرد": 2655,
      "برافشان": 2656,
      "برادر": 2657,
      "بادی": 2658,
      "بادم": 2659,
      "ندهی": 2660,
      "رافشان": 2661,
      "خودی": 2662,
      "خونم": 2663,
      "خواری": 2664,
      "خوریم": 2665,
      "روشنی": 2666,
      "توران": 2667,
      "منع": 2668,
      "منعم": 2669,
      "منشین": 2670,
      "منقار": 2671,
      "دهی": 2672,
      "دهنان": 2673,
      "الف": 2674,
      "بیخ": 2675,
      "فتاح": 2676,
      "فتاده": 2677,
      "نیافت": 2678,
      "دلخواه": 2679,
      "دلداری": 2680,
      "دلجوی": 2681,
      "ویران": 2682,
      "افکن": 2683,
      "ریخت": 2684,
      "آنک": 2685,
      "کنع": 2686,
      "مادر": 2687,
      "سرخ": 2688,
      "سرکش": 2689,
      "سرکشی": 2690,
      "سرگردان": 2691,
      "سرانجام": 2692,
      "نهی": 2693,
      "دوشم": 2694,
      "شماست": 2695,
      "سیان": 2696,
      "دارش": 2697,
      "همچنان": 2698,
      "نگشت": 2699,
      "شکرین": 2700,
      "گلزار": 2701,
      "شقایق": 2702,
      "رهزن": 2703,
      "رهروان": 2704,
      "رهگذار": 2705,
      "پیراه": 2706,
      "بادت": 2707,
      "اقبال": 2708,
      "نوشی": 2709,
      "نوروزی": 2710,
      "نوشته": 2711,
      "خوشدل": 2712,
      "خوشخوان": 2713,
      "خوشگوار": 2714,
      "رمزی": 2715,
      "بازوی": 2716,
      "پرسم": 2717,
      "آیتی": 2718,
      "رویی": 2719,
      "مرنج": 2720,
      "مرقع": 2721,
      "عشقش": 2722,
      "عشقم": 2723,
      "مداد": 2724,
      "مدحت": 2725,
      "نمایی": 2726,
      "یاس": 2727,
      "کید": 2728,
      "معت": 2729,
      "رخی": 2730,
      "انیم": 2731,
      "شاهان": 2732,
      "شاهین": 2733,
      "شاهدان": 2734,
      "بوع": 2735,
      "ترس": 2736,
      "ترکی": 2737,
      "زلفین": 2738,
      "مستم": 2739,
      "مستور": 2740,
      "شهد": 2741,
      "خیزد": 2742,
      "کوکب": 2743,
      "نقل": 2744,
      "لطافت": 2745,
      "فیروزه": 2746,
      "نظیر": 2747,
      "نظرم": 2748,
      "گذرد": 2749,
      "فرح": 2750,
      "فرزانه": 2751,
      "بندد": 2752,
      "اندام": 2753,
      "زیبا": 2754,
      "زیبای": 2755,
      "سروقد": 2756,
      "هواداری": 2757,
      "امیدم": 2758,
      "بارد": 2759,
      "بارم": 2760,
      "شبگیر": 2761,
      "بستانی": 2762,
      "بساط": 2763,
      "زانکه": 2764,
      "قدت": 2765,
      "قدحی": 2766,
      "رساند": 2767,
      "فروشی": 2768,
      "فاتح": 2769,
      "بخرا": 2770,
      "بلای": 2771,
      "شیدن": 2772,
      "خرده": 2773,
      "گیران": 2774,
      "اندرون": 2775,
      "حسنت": 2776,
      "خویشم": 2777,
      "قیه": 2778,
      "دگری": 2779,
      "دگربار": 2780,
      "هیچش": 2781,
      "نرسی": 2782,
      "عمرت": 2783,
      "درید": 2784,
      "ساخت": 2785,
      "ساکنان": 2786,
      "نازکی": 2787,
      "نازنین": 2788,
      "خیالش": 2789,
      "زندان": 2790,
      "صبحی": 2791,
      "صبحگاهی": 2792,
      "جوز": 2793,
      "کامگار": 2794,
      "اتف": 2795,
      "بشنوی": 2796,
      "طلبت": 2797,
      "طلبم": 2798,
      "دردکشان": 2799,
      "کلبه": 2800,
      "زنند": 2801,
      "حقا": 2802,
      "مقامی": 2803,
      "ستانند": 2804,
      "پرورد": 2805,
      "مرغی": 2806,
      "گسار": 2807,
      "سالخورده": 2808,
      "کجایی": 2809,
      "حریفی": 2810,
      "وشش": 2811,
      "سازم": 2812,
      "نشاید": 2813,
      "حکایتی": 2814,
      "باغبان": 2815,
      "خواج": 2816,
      "تابم": 2817,
      "نگارا": 2818,
      "عیبم": 2819,
      "وفاتش": 2820,
      "آمدم": 2821,
      "شهره": 2822,
      "صرت": 2823,
      "صرفه": 2824,
      "شنیدم": 2825,
      "نشانی": 2826,
      "پاکی": 2827,
      "دعایی": 2828,
      "گذران": 2829,
      "خرابم": 2830,
      "فکرت": 2831,
      "صیت": 2832,
      "سپند": 2833,
      "فروشند": 2834,
      "اجل": 2835,
      "روحانی": 2836,
      "خسروا": 2837,
      "سلیمانی": 2838,
      "دیوار": 2839,
      "آزاده": 2840,
      "تقا": 2841,
      "نسبت": 2842,
      "کاخ": 2843,
      "خامه": 2844,
      "عارضش": 2845,
      "وفاداری": 2846,
      "بایستی": 2847,
      "حوادث": 2848,
      "شکنج": 2849,
      "طبیبان": 2850,
      "ندهد": 2851,
      "مذاق": 2852,
      "سراپرده": 2853,
      "طاقت": 2854,
      "جوانان": 2855,
      "ظلمات": 2856,
      "فرمای": 2857,
      "فرمود": 2858,
      "حجله": 2859,
      "تلخی": 2860,
      "رضای": 2861,
      "رفیقان": 2862,
      "شعله": 2863,
      "افلاک": 2864,
      "نمودم": 2865,
      "سزای": 2866,
      "فراغت": 2867,
      "اغیار": 2868,
      "برافرو": 2869,
      "تمنا": 2870,
      "خداوندا": 2871,
      "داستان": 2872,
      "بیاموز": 2873,
      "آشنایی": 2874,
      "مفلس": 2875,
      "هنری": 2876,
      "واقف": 2877,
      "واقعه": 2878,
      "شنوم": 2879,
      "فسون": 2880,
      "پشیمان": 2881,
      "حبیب": 2882,
      "حکیم": 2883,
      "صعب": 2884,
      "صنعت": 2885,
      "ضعیف": 2886,
      "مطبوع": 2887,
      "گرامی": 2888,
      "نازنینی": 2889,
      "خداداد": 2890,
      "وحشی": 2891,
      "قلندر": 2892,
      "عندلیب": 2893,
      "تقصیر": 2894,
      "تزویر": 2895,
      "غایب": 2896,
      "وعده": 2897,
      "الطاف": 2898,
      "شهنشاه": 2899,
      "اساس": 2900,
      "زیارت": 2901,
      "عنقا": 2902,
      "عربده": 2903,
      "مختصر": 2904,
      "نخوت": 2905,
      "نسخه": 2906,
      "هنگام": 2907,
      "فاتحه": 2908,
      "آبروی": 2909,
      "اصل": 2910,
      "اجر": 2911,
      "اسم": 2912,
      "اشتی": 2913,
      "اسلام": 2914,
      "بض": 2915,
      "بدو": 2916,
      "بخواهد": 2917,
      "ببخش": 2918,
      "بکشم": 2919,
      "بفرست": 2920,
      "بگوید": 2921,
      "بپرسید": 2922,
      "بنمای": 2923,
      "تخ": 2924,
      "تص": 2925,
      "ترد": 2926,
      "تسلی": 2927,
      "تغی": 2928,
      "ثو": 2929,
      "ثیر": 2930,
      "ثبات": 2931,
      "ثابت": 2932,
      "جل": 2933,
      "جنس": 2934,
      "جعد": 2935,
      "حرو": 2936,
      "حما": 2937,
      "حتی": 2938,
      "حشر": 2939,
      "حادث": 2940,
      "خش": 2941,
      "خن": 2942,
      "خاز": 2943,
      "خفت": 2944,
      "خاو": 2945,
      "خشت": 2946,
      "خشک": 2947,
      "خزی": 2948,
      "خات": 2949,
      "خفته": 2950,
      "دشت": 2951,
      "دشو": 2952,
      "دندان": 2953,
      "ذا": 2954,
      "رک": 2955,
      "رسو": 2956,
      "رانی": 2957,
      "راند": 2958,
      "رایت": 2959,
      "رمانی": 2960,
      "زنگ": 2961,
      "زغن": 2962,
      "سرد": 2963,
      "ساد": 2964,
      "سمر": 2965,
      "ساح": 2966,
      "سقف": 2967,
      "ساحت": 2968,
      "سجده": 2969,
      "سدره": 2970,
      "شنگ": 2971,
      "شاک": 2972,
      "شعا": 2973,
      "شامی": 2974,
      "صان": 2975,
      "صفی": 2976,
      "صحر": 2977,
      "ضمان": 2978,
      "طب": 2979,
      "طق": 2980,
      "طور": 2981,
      "طاب": 2982,
      "طرم": 2983,
      "طفل": 2984,
      "ظاهر": 2985,
      "عدم": 2986,
      "عبیر": 2987,
      "عیاری": 2988,
      "عقیق": 2989,
      "عصمت": 2990,
      "غنیست": 2991,
      "فام": 2992,
      "فوت": 2993,
      "فسق": 2994,
      "فقیه": 2995,
      "قتی": 2996,
      "قرین": 2997,
      "قدری": 2998,
      "قابل": 2999,
      "قیاس": 3000,
      "متا": 3001,
      "مشت": 3002,
      "مطر": 3003,
      "مشه": 3004,
      "مبند": 3005,
      "مقر": 3006,
      "مگس": 3007,
      "مخل": 3008,
      "مندی": 3009,
      "مگذار": 3010,
      "مظفر": 3011,
      "ناد": 3012,
      "نشا": 3013,
      "نبخشد": 3014,
      "نغز": 3015,
      "ننشیند": 3016,
      "هش": 3017,
      "هری": 3018,
      "واع": 3019,
      "پدر": 3020,
      "پاره": 3021,
      "پدید": 3022,
      "پاس": 3023,
      "پنجه": 3024,
      "چمان": 3025,
      "چاب": 3026,
      "چگان": 3027,
      "کال": 3028,
      "گهم": 3029,
      "یاو": 3030,
      "یغم": 3031,
      "یحی": 3032,
      "انند": 3033,
      "انصاف": 3034,
      "انعام": 3035,
      "انواع": 3036,
      "کهن": 3037,
      "ازد": 3038,
      "ازی": 3039,
      "ازده": 3040,
      "بهانه": 3041,
      "بهاری": 3042,
      "درآ": 3043,
      "درج": 3044,
      "درخ": 3045,
      "درافتاد": 3046,
      "میق": 3047,
      "میدان": 3048,
      "مینا": 3049,
      "میمون": 3050,
      "بردی": 3051,
      "برکنم": 3052,
      "بربند": 3053,
      "برکش": 3054,
      "برآورد": 3055,
      "برهان": 3056,
      "برنیامد": 3057,
      "باط": 3058,
      "بادا": 3059,
      "باتم": 3060,
      "باطل": 3061,
      "بامداد": 3062,
      "ندگار": 3063,
      "راض": 3064,
      "راک": 3065,
      "راهم": 3066,
      "روند": 3067,
      "روحی": 3068,
      "تواش": 3069,
      "منور": 3070,
      "دها": 3071,
      "دهنت": 3072,
      "الهی": 3073,
      "السلام": 3074,
      "بینا": 3075,
      "بیداد": 3076,
      "بیداری": 3077,
      "بیفشان": 3078,
      "بیشتر": 3079,
      "اما": 3080,
      "امام": 3081,
      "امکان": 3082,
      "فتراک": 3083,
      "نیش": 3084,
      "نیل": 3085,
      "نیاو": 3086,
      "نیاید": 3087,
      "دلبند": 3088,
      "دلرب": 3089,
      "دیشب": 3090,
      "دیدیم": 3091,
      "استغ": 3092,
      "استاد": 3093,
      "استغن": 3094,
      "ویذ": 3095,
      "افرو": 3096,
      "افغان": 3097,
      "افزون": 3098,
      "ریایی": 3099,
      "اینک": 3100,
      "وداع": 3101,
      "آنان": 3102,
      "کنمت": 3103,
      "کناری": 3104,
      "کناره": 3105,
      "کنگره": 3106,
      "ادتی": 3107,
      "اداران": 3108,
      "ماجر": 3109,
      "سرشت": 3110,
      "سرها": 3111,
      "نهم": 3112,
      "نهال": 3113,
      "نهایت": 3114,
      "دوای": 3115,
      "دولتی": 3116,
      "شینی": 3117,
      "شیری": 3118,
      "شدگان": 3119,
      "شمال": 3120,
      "سیمرغ": 3121,
      "دارا": 3122,
      "دارت": 3123,
      "دارای": 3124,
      "همتم": 3125,
      "اوت": 3126,
      "اوقات": 3127,
      "نگین": 3128,
      "نگشاد": 3129,
      "نگیرم": 3130,
      "دمش": 3131,
      "دمادم": 3132,
      "شکاری": 3133,
      "جانش": 3134,
      "گلیم": 3135,
      "گلرنگ": 3136,
      "دادی": 3137,
      "داشتی": 3138,
      "ورای": 3139,
      "رهش": 3140,
      "رهن": 3141,
      "گفتند": 3142,
      "لبان": 3143,
      "پیشک": 3144,
      "کردار": 3145,
      "کردند": 3146,
      "کردگار": 3147,
      "ابخش": 3148,
      "نومید": 3149,
      "دستت": 3150,
      "بازش": 3151,
      "غمگ": 3152,
      "غمدیده": 3153,
      "جهت": 3154,
      "مرگ": 3155,
      "مرکب": 3156,
      "مرتبه": 3157,
      "عشقی": 3158,
      "کارها": 3159,
      "کاروان": 3160,
      "کارگاه": 3161,
      "مدت": 3162,
      "مداو": 3163,
      "نمودی": 3164,
      "سوزی": 3165,
      "سواران": 3166,
      "کینه": 3167,
      "کیسه": 3168,
      "کیخسرو": 3169,
      "هیم": 3170,
      "رخم": 3171,
      "رخنه": 3172,
      "رخشان": 3173,
      "طرفی": 3174,
      "خواهیم": 3175,
      "شاها": 3176,
      "شاهم": 3177,
      "ملت": 3178,
      "ملاحت": 3179,
      "بوست": 3180,
      "بوده": 3181,
      "بوال": 3182,
      "بودیم": 3183,
      "ترحم": 3184,
      "گیاه": 3185,
      "اگرت": 3186,
      "جامم": 3187,
      "مستت": 3188,
      "مستش": 3189,
      "مستغنیست": 3190,
      "ناگاه": 3191,
      "جهانم": 3192,
      "کسش": 3193,
      "ارید": 3194,
      "خاکم": 3195,
      "دوستداران": 3196,
      "گوییا": 3197,
      "مرادم": 3198,
      "محی": 3199,
      "محال": 3200,
      "صدف": 3201,
      "عامی": 3202,
      "رفتند": 3203,
      "زیور": 3204,
      "زیبد": 3205,
      "لولی": 3206,
      "هواست": 3207,
      "هوشی": 3208,
      "بارگاه": 3209,
      "شبانه": 3210,
      "حرص": 3211,
      "یادش": 3212,
      "یادم": 3213,
      "بستر": 3214,
      "بستم": 3215,
      "ساقیان": 3216,
      "خماری": 3217,
      "خمخانه": 3218,
      "مجو": 3219,
      "مجمر": 3220,
      "عهدی": 3221,
      "قدمی": 3222,
      "احزان": 3223,
      "احباب": 3224,
      "رسند": 3225,
      "بنگری": 3226,
      "بنشست": 3227,
      "نجد": 3228,
      "کشف": 3229,
      "کشور": 3230,
      "پیرم": 3231,
      "پیران": 3232,
      "نظرباز": 3233,
      "نظربازی": 3234,
      "شربت": 3235,
      "شکرخواب": 3236,
      "بلغ": 3237,
      "مهلت": 3238,
      "شیدایی": 3239,
      "فلانی": 3240,
      "ناموس": 3241,
      "نامحرم": 3242,
      "قیل": 3243,
      "خطت": 3244,
      "بدعهدی": 3245,
      "بیاض": 3246,
      "بیابی": 3247,
      "صول": 3248,
      "کویش": 3249,
      "کویی": 3250,
      "گشتی": 3251,
      "پیشش": 3252,
      "امتحان": 3253,
      "ساده": 3254,
      "مگرش": 3255,
      "مگردان": 3256,
      "صبحگاه": 3257,
      "گرفتی": 3258,
      "گرفتار": 3259,
      "سحرگاه": 3260,
      "کامران": 3261,
      "آهن": 3262,
      "بختت": 3263,
      "رازی": 3264,
      "مشکبار": 3265,
      "سبزه": 3266,
      "کلام": 3267,
      "کلاله": 3268,
      "یدن": 3269,
      "نکشد": 3270,
      "حقه": 3271,
      "حقارت": 3272,
      "حقوق": 3273,
      "مقصد": 3274,
      "صفایی": 3275,
      "صفحه": 3276,
      "دوشش": 3277,
      "پروایی": 3278,
      "سودازده": 3279,
      "فراوان": 3280,
      "فراقت": 3281,
      "مسکن": 3282,
      "نسیمش": 3283,
      "خوانند": 3284,
      "خاطرم": 3285,
      "گریبان": 3286,
      "مشوی": 3287,
      "مشغول": 3288,
      "مردمان": 3289,
      "فریادم": 3290,
      "نفرم": 3291,
      "ابرویت": 3292,
      "نشسته": 3293,
      "خبری": 3294,
      "غلغل": 3295,
      "نوشش": 3296,
      "بایدت": 3297,
      "منزلگه": 3298,
      "زاهدان": 3299,
      "بریده": 3300,
      "عمرم": 3301,
      "ندیدیم": 3302,
      "دمید": 3303,
      "عارف": 3304,
      "عارفان": 3305,
      "غریبی": 3306,
      "گنجی": 3307,
      "مغانم": 3308,
      "بسیست": 3309,
      "مینایی": 3310,
      "وصالت": 3311,
      "وصالش": 3312,
      "کمانی": 3313,
      "کفن": 3314,
      "سپرد": 3315,
      "رحمی": 3316,
      "صبرم": 3317,
      "اعتبار": 3318,
      "شناس": 3319,
      "شناسان": 3320,
      "قدمش": 3321,
      "نیکخواه": 3322,
      "خلوتگه": 3323,
      "خسروان": 3324,
      "پسندی": 3325,
      "اندیش": 3326,
      "دلبران": 3327,
      "تازی": 3328,
      "خجلت": 3329,
      "خجالت": 3330,
      "دنیای": 3331,
      "منتظ": 3332,
      "دریغا": 3333,
      "عارضت": 3334,
      "گشادی": 3335,
      "امانت": 3336,
      "خانگی": 3337,
      "شویم": 3338,
      "تحقیق": 3339,
      "حرمت": 3340,
      "شرمسار": 3341,
      "غیبم": 3342,
      "اسح": 3343,
      "اسکندر": 3344,
      "مقامات": 3345,
      "بنیادم": 3346,
      "حیرتم": 3347,
      "سراچه": 3348,
      "کوشش": 3349,
      "بزمگاه": 3350,
      "فضلی": 3351,
      "ظلم": 3352,
      "فرماید": 3353,
      "لابه": 3354,
      "گیسویت": 3355,
      "ساروان": 3356,
      "رقصند": 3357,
      "مایل": 3358,
      "هواخواه": 3359,
      "قامتت": 3360,
      "مدعیان": 3361,
      "نصیحتگو": 3362,
      "انگیزد": 3363,
      "برقع": 3364,
      "همنف": 3365,
      "آتشی": 3366,
      "مصری": 3367,
      "پذی": 3368,
      "ندادند": 3369,
      "آرزوست": 3370,
      "بدرقه": 3371,
      "بدرخشید": 3372,
      "تمنای": 3373,
      "خداوندگار": 3374,
      "راهیست": 3375,
      "خوبتر": 3376,
      "آشنایان": 3377,
      "تعویذ": 3378,
      "ظهار": 3379,
      "مسیح": 3380,
      "مسیحا": 3381,
      "نویسد": 3382,
      "چارده": 3383,
      "پرداخت": 3384,
      "راحتی": 3385,
      "همایون": 3386,
      "تفرقه": 3387,
      "طعنه": 3388,
      "پشیمانی": 3389,
      "کاشانه": 3390,
      "اندوه": 3391,
      "خلوتیان": 3392,
      "حمایت": 3393,
      "سحاب": 3394,
      "مجموع": 3395,
      "مجموعه": 3396,
      "مغبچه": 3397,
      "مغبچگان": 3398,
      "بغداد": 3399,
      "بگرداند": 3400,
      "بزرگی": 3401,
      "خریدار": 3402,
      "مسلمان": 3403,
      "کمترین": 3404,
      "گداز": 3405,
      "ویرانه": 3406,
      "فارس": 3407,
      "چالاک": 3408,
      "رخساره": 3409,
      "تنهایی": 3410,
      "مرهمی": 3411,
      "گمراه": 3412,
      "بادیه": 3413,
      "اتفاق": 3414,
      "خواجگی": 3415,
      "تقاضا": 3416,
      "تغییر": 3417,
      "حروف": 3418,
      "حادثه": 3419,
      "خازن": 3420,
      "خزینه": 3421,
      "شعاع": 3422,
      "صحرای": 3423,
      "مشتری": 3424,
      "نشاط": 3425,
      "پاسبان": 3426,
      "یحیی": 3427,
      "آمر": 3428,
      "آهو": 3429,
      "آهست": 3430,
      "آزر": 3431,
      "آشتی": 3432,
      "آصفی": 3433,
      "ابا": 3434,
      "اسب": 3435,
      "اخل": 3436,
      "بص": 3437,
      "بک": 3438,
      "بدم": 3439,
      "بمان": 3440,
      "بگفت": 3441,
      "بباز": 3442,
      "بکار": 3443,
      "ببار": 3444,
      "بجوی": 3445,
      "بخواهم": 3446,
      "بچین": 3447,
      "بپوش": 3448,
      "ببخشد": 3449,
      "ببوس": 3450,
      "بخوانی": 3451,
      "بدمد": 3452,
      "تذ": 3453,
      "تغ": 3454,
      "تای": 3455,
      "تبا": 3456,
      "تری": 3457,
      "ترم": 3458,
      "تعل": 3459,
      "تلق": 3460,
      "تحری": 3461,
      "تنش": 3462,
      "تنت": 3463,
      "تخته": 3464,
      "تبارک": 3465,
      "تعظیم": 3466,
      "ثق": 3467,
      "ثاق": 3468,
      "ثباتی": 3469,
      "جع": 3470,
      "جاب": 3471,
      "جنان": 3472,
      "جسم": 3473,
      "جدایی": 3474,
      "جمیل": 3475,
      "حص": 3476,
      "حون": 3477,
      "حلت": 3478,
      "حزین": 3479,
      "خاق": 3480,
      "خاری": 3481,
      "خرند": 3482,
      "خمیده": 3483,
      "خاور": 3484,
      "خلیل": 3485,
      "دج": 3486,
      "دقی": 3487,
      "دگانی": 3488,
      "دغا": 3489,
      "رغ": 3490,
      "رگ": 3491,
      "رکن": 3492,
      "رمان": 3493,
      "رحی": 3494,
      "رباط": 3495,
      "زجا": 3496,
      "زمه": 3497,
      "زاده": 3498,
      "زنگاری": 3499,
      "سبا": 3500,
      "سپی": 3501,
      "ساب": 3502,
      "سمع": 3503,
      "سایی": 3504,
      "سزد": 3505,
      "سپرده": 3506,
      "شط": 3507,
      "شبه": 3508,
      "شبر": 3509,
      "شایی": 3510,
      "شاع": 3511,
      "شغل": 3512,
      "صدا": 3513,
      "صلی": 3514,
      "صمد": 3515,
      "ضان": 3516,
      "طیر": 3517,
      "طلو": 3518,
      "طغر": 3519,
      "طعن": 3520,
      "طارم": 3521,
      "طغرا": 3522,
      "ظن": 3523,
      "ظاه": 3524,
      "عبار": 3525,
      "عقد": 3526,
      "عقی": 3527,
      "عکسی": 3528,
      "عادت": 3529,
      "عدن": 3530,
      "عمیق": 3531,
      "غف": 3532,
      "غما": 3533,
      "غله": 3534,
      "فد": 3535,
      "فظ": 3536,
      "فع": 3537,
      "فتو": 3538,
      "فلی": 3539,
      "فروز": 3540,
      "فالی": 3541,
      "قرا": 3542,
      "قدان": 3543,
      "قضای": 3544,
      "قمری": 3545,
      "لبا": 3546,
      "لاج": 3547,
      "لعلی": 3548,
      "مز": 3549,
      "مگ": 3550,
      "مار": 3551,
      "مزد": 3552,
      "مزر": 3553,
      "متاب": 3554,
      "مهمان": 3555,
      "مفکن": 3556,
      "مکت": 3557,
      "مفرما": 3558,
      "مشرب": 3559,
      "مپسند": 3560,
      "مفتاح": 3561,
      "نود": 3562,
      "نرم": 3563,
      "نعی": 3564,
      "نزد": 3565,
      "نعل": 3566,
      "نزار": 3567,
      "نگرد": 3568,
      "نزند": 3569,
      "نگرفت": 3570,
      "نگری": 3571,
      "نپرس": 3572,
      "نبری": 3573,
      "نچی": 3574,
      "ننهاد": 3575,
      "ننهد": 3576,
      "نزدی": 3577,
      "نبرم": 3578,
      "نبید": 3579,
      "نباتی": 3580,
      "نستانند": 3581,
      "هشت": 3582,
      "هدهد": 3583,
      "وای": 3584,
      "وام": 3585,
      "وشی": 3586,
      "وهم": 3587,
      "وسو": 3588,
      "وشان": 3589,
      "وشیم": 3590,
      "پست": 3591,
      "پشت": 3592,
      "پخت": 3593,
      "پره": 3594,
      "پروی": 3595,
      "پایی": 3596,
      "پهل": 3597,
      "چل": 3598,
      "چتر": 3599,
      "چکید": 3600,
      "ژاله": 3601,
      "کاک": 3602,
      "کلی": 3603,
      "کآتش": 3604,
      "کاهل": 3605,
      "کآخر": 3606,
      "کباب": 3607,
      "کرام": 3608,
      "کاج": 3609,
      "کحل": 3610,
      "کاهی": 3611,
      "گزم": 3612,
      "گاریست": 3613,
      "یه": 3614,
      "یزد": 3615,
      "یمانی": 3616,
      "یغما": 3617,
      "انگو": 3618,
      "انور": 3619,
      "انعامی": 3620,
      "ستن": 3621,
      "ایا": 3622,
      "ارادت": 3623,
      "ازت": 3624,
      "ازلی": 3625,
      "بهمن": 3626,
      "بهره": 3627,
      "دردا": 3628,
      "درآمدی": 3629,
      "دربانی": 3630,
      "میی": 3631,
      "میفکن": 3632,
      "برت": 3633,
      "برس": 3634,
      "برکن": 3635,
      "بربود": 3636,
      "برکند": 3637,
      "برنج": 3638,
      "برآر": 3639,
      "برخورد": 3640,
      "برکشد": 3641,
      "برسد": 3642,
      "برآمدی": 3643,
      "برآور": 3644,
      "برکشیم": 3645,
      "برانگیخت": 3646,
      "باخت": 3647,
      "باله": 3648,
      "ندس": 3649,
      "ندهم": 3650,
      "راسته": 3651,
      "راستان": 3652,
      "راستی": 3653,
      "خوشی": 3654,
      "خوشت": 3655,
      "خونا": 3656,
      "روش": 3657,
      "گردم": 3658,
      "گردا": 3659,
      "منبر": 3660,
      "منال": 3661,
      "منما": 3662,
      "منبع": 3663,
      "منصب": 3664,
      "دهنش": 3665,
      "دهقان": 3666,
      "الخ": 3667,
      "العشق": 3668,
      "الحق": 3669,
      "الصبوح": 3670,
      "بیه": 3671,
      "بیدل": 3672,
      "بیخودی": 3673,
      "امال": 3674,
      "فتنم": 3675,
      "نیکی": 3676,
      "نیکو": 3677,
      "نیرنگ": 3678,
      "نیوش": 3679,
      "نیارد": 3680,
      "دلستان": 3681,
      "دلالت": 3682,
      "دلخسته": 3683,
      "دلسوخته": 3684,
      "دلشدگان": 3685,
      "دیگ": 3686,
      "دینی": 3687,
      "دیرین": 3688,
      "دیگران": 3689,
      "ویش": 3690,
      "ریشم": 3691,
      "اینش": 3692,
      "اینجا": 3693,
      "آنچ": 3694,
      "آنگه": 3695,
      "کنف": 3696,
      "کنارم": 3697,
      "کنایتی": 3698,
      "ادا": 3699,
      "سره": 3700,
      "سرمد": 3701,
      "سراید": 3702,
      "سرمنزل": 3703,
      "سربسته": 3704,
      "سرپنجه": 3705,
      "دوم": 3706,
      "دوری": 3707,
      "دورم": 3708,
      "دوامی": 3709,
      "شیب": 3710,
      "شیت": 3711,
      "شیرم": 3712,
      "شیدای": 3713,
      "هرجایی": 3714,
      "شمر": 3715,
      "شمند": 3716,
      "شمایل": 3717,
      "سین": 3718,
      "سیمین": 3719,
      "دارالسلام": 3720,
      "همایی": 3721,
      "همراه": 3722,
      "همراز": 3723,
      "همرهی": 3724,
      "تات": 3725,
      "تابان": 3726,
      "تاثیر": 3727,
      "اورا": 3728,
      "اورنگ": 3729,
      "نگشود": 3730,
      "نگشاید": 3731,
      "نگنجد": 3732,
      "دمسازم": 3733,
      "شتیم": 3734,
      "مانند": 3735,
      "شکری": 3736,
      "شکیب": 3737,
      "شکفته": 3738,
      "جانت": 3739,
      "گلم": 3740,
      "گواه": 3741,
      "ورز": 3742,
      "رهت": 3743,
      "رهند": 3744,
      "رهنم": 3745,
      "رهگذری": 3746,
      "گفتمت": 3747,
      "پیما": 3748,
      "پیشتر": 3749,
      "ابو": 3750,
      "اقلی": 3751,
      "اکسیر": 3752,
      "نوری": 3753,
      "نوشم": 3754,
      "نوایی": 3755,
      "نوبت": 3756,
      "نواله": 3757,
      "نوشین": 3758,
      "نوخاست": 3759,
      "دستبرد": 3760,
      "دستگیر": 3761,
      "خوشاب": 3762,
      "رمضان": 3763,
      "بازد": 3764,
      "بازپرس": 3765,
      "بازگویم": 3766,
      "غمم": 3767,
      "غمزده": 3768,
      "غمگسار": 3769,
      "پرستان": 3770,
      "یارب": 3771,
      "چشمش": 3772,
      "رویش": 3773,
      "مران": 3774,
      "مرصع": 3775,
      "کارت": 3776,
      "کارش": 3777,
      "کاریست": 3778,
      "کاردانی": 3779,
      "روزن": 3780,
      "روزگاریست": 3781,
      "مدح": 3782,
      "نمک": 3783,
      "نمایم": 3784,
      "سوزان": 3785,
      "سوزم": 3786,
      "سوادی": 3787,
      "سوگند": 3788,
      "کیش": 3789,
      "معانی": 3790,
      "معلو": 3791,
      "معجز": 3792,
      "معدن": 3793,
      "معمور": 3794,
      "نمیرد": 3795,
      "خودش": 3796,
      "خودبین": 3797,
      "جات": 3798,
      "جاوید": 3799,
      "شوده": 3800,
      "شاهدی": 3801,
      "ملاز": 3802,
      "ملکی": 3803,
      "ملمع": 3804,
      "بوب": 3805,
      "بوسی": 3806,
      "بوسید": 3807,
      "جامت": 3808,
      "عینی": 3809,
      "عیشی": 3810,
      "مستحق": 3811,
      "کرانه": 3812,
      "شهری": 3813,
      "شهاب": 3814,
      "شهپر": 3815,
      "ناظ": 3816,
      "نادیده": 3817,
      "ناگه": 3818,
      "ناتوانی": 3819,
      "ناسز": 3820,
      "خیزان": 3821,
      "کسان": 3822,
      "کوس": 3823,
      "کوزه": 3824,
      "کوشیم": 3825,
      "خاکدان": 3826,
      "لطفی": 3827,
      "لهجه": 3828,
      "فیروزی": 3829,
      "محل": 3830,
      "محمل": 3831,
      "محبان": 3832,
      "محرمان": 3833,
      "محفلی": 3834,
      "محبوب": 3835,
      "فرج": 3836,
      "فرزند": 3837,
      "عاط": 3838,
      "زیب": 3839,
      "زیده": 3840,
      "زیادت": 3841,
      "بردند": 3842,
      "آبستن": 3843,
      "سرور": 3844,
      "راهت": 3845,
      "راهرو": 3846,
      "راهروان": 3847,
      "هواداران": 3848,
      "بارها": 3849,
      "بارگه": 3850,
      "شبنمی": 3851,
      "صلای": 3852,
      "تشری": 3853,
      "تشویش": 3854,
      "حرز": 3855,
      "یادست": 3856,
      "یادگار": 3857,
      "دادخواه": 3858,
      "دادگست": 3859,
      "بسم": 3860,
      "مجاز": 3861,
      "مجمع": 3862,
      "مجروح": 3863,
      "زانو": 3864,
      "قدش": 3865,
      "قدسی": 3866,
      "قدسم": 3867,
      "توانم": 3868,
      "توانگر": 3869,
      "احرام": 3870,
      "فرود": 3871,
      "فروشم": 3872,
      "فاع": 3873,
      "خداش": 3874,
      "بنگرد": 3875,
      "بنازم": 3876,
      "بنالم": 3877,
      "جزای": 3878,
      "ماهت": 3879,
      "ماهم": 3880,
      "ابروان": 3881,
      "اعدا": 3882,
      "اعتم": 3883,
      "پیرهن": 3884,
      "شرار": 3885,
      "بخر": 3886,
      "سلسبیل": 3887,
      "بلاست": 3888,
      "بلاکش": 3889,
      "مهندس": 3890,
      "حالش": 3891,
      "بحمد": 3892,
      "قید": 3893,
      "خطی": 3894,
      "خطاست": 3895,
      "خطایی": 3896,
      "بدخواه": 3897,
      "بیاسای": 3898,
      "قصور": 3899,
      "گردنم": 3900,
      "حاجب": 3901,
      "حاتم": 3902,
      "مکناد": 3903,
      "موم": 3904,
      "موسی": 3905,
      "دریای": 3906,
      "دریده": 3907,
      "دریابد": 3908,
      "آوری": 3909,
      "نازد": 3910,
      "خیالت": 3911,
      "خیالم": 3912,
      "خراج": 3913,
      "زندگانی": 3914,
      "زمام": 3915,
      "زمره": 3916,
      "زمزمه": 3917,
      "صبحم": 3918,
      "گرفتم": 3919,
      "لقمه": 3920,
      "جوری": 3921,
      "جواب": 3922,
      "جولان": 3923,
      "زرت": 3924,
      "سحرگهی": 3925,
      "کامم": 3926,
      "رازم": 3927,
      "طلبند": 3928,
      "سببی": 3929,
      "قلمت": 3930,
      "سایان": 3931,
      "صحن": 3932,
      "چمنش": 3933,
      "مقبول": 3934,
      "مغرور": 3935,
      "دامگه": 3936,
      "رنگی": 3937,
      "پروین": 3938,
      "سودایی": 3939,
      "فرامو": 3940,
      "تهنیت": 3941,
      "زینت": 3942,
      "خوانده": 3943,
      "سالکان": 3944,
      "خاص": 3945,
      "خاصه": 3946,
      "قوف": 3947,
      "سوختگان": 3948,
      "لسان": 3949,
      "مشرق": 3950,
      "دهدت": 3951,
      "افتادم": 3952,
      "نشیب": 3953,
      "مردمی": 3954,
      "وصلم": 3955,
      "نفاق": 3956,
      "آرای": 3957,
      "آرایی": 3958,
      "بگذرم": 3959,
      "سازی": 3960,
      "ابرویش": 3961,
      "بلبلان": 3962,
      "خبرم": 3963,
      "خندند": 3964,
      "مژدگانی": 3965,
      "جویی": 3966,
      "گشایی": 3967,
      "خوابی": 3968,
      "بدهم": 3969,
      "دلیری": 3970,
      "پادشهی": 3971,
      "خلاف": 3972,
      "خلوتم": 3973,
      "بریز": 3974,
      "شهرم": 3975,
      "شهرآشوب": 3976,
      "عمارت": 3977,
      "عنایتی": 3978,
      "بالین": 3979,
      "بالایی": 3980,
      "بالله": 3981,
      "اشکی": 3982,
      "طوق": 3983,
      "طواف": 3984,
      "صهبا": 3985,
      "غریق": 3986,
      "وسمه": 3987,
      "پاکان": 3988,
      "پاکدامن": 3989,
      "سیاهت": 3990,
      "رسیدن": 3991,
      "مدارا": 3992,
      "مرادش": 3993,
      "شادمان": 3994,
      "قدرت": 3995,
      "کمانچه": 3996,
      "حدیثی": 3997,
      "کفایت": 3998,
      "درازدستی": 3999,
      "بهاران": 4000,
      "حاجی": 4001,
      "آریم": 4002,
      "رحمان": 4003,
      "جمالت": 4004,
      "عذاب": 4005,
      "ولایت": 4006,
      "بلندش": 4007,
      "اجازت": 4008,
      "ندانستم": 4009,
      "قدمت": 4010,
      "دهانش": 4011,
      "سیرت": 4012,
      "چراغی": 4013,
      "اندیشم": 4014,
      "آزادم": 4015,
      "التفات": 4016,
      "دلبرا": 4017,
      "دلبرم": 4018,
      "تیغی": 4019,
      "خامش": 4020,
      "جگرسوز": 4021,
      "وفایی": 4022,
      "فیضی": 4023,
      "پادشاها": 4024,
      "بسوختیم": 4025,
      "صبوری": 4026,
      "نیازی": 4027,
      "تحفه": 4028,
      "حوض": 4029,
      "حوال": 4030,
      "حوالت": 4031,
      "ارانند": 4032,
      "افشاند": 4033,
      "افشانی": 4034,
      "شیرگیر": 4035,
      "خطاپوش": 4036,
      "مالک": 4037,
      "روزگاران": 4038,
      "بلاغ": 4039,
      "ارغوانی": 4040,
      "آسانی": 4041,
      "بزمگه": 4042,
      "سعد": 4043,
      "فضای": 4044,
      "خواسته": 4045,
      "بینداز": 4046,
      "تمامی": 4047,
      "زوال": 4048,
      "حجاز": 4049,
      "رنجش": 4050,
      "نعره": 4051,
      "پیوست": 4052,
      "پرورده": 4053,
      "نگاهی": 4054,
      "بشکفت": 4055,
      "عظمت": 4056,
      "هندو": 4057,
      "واثق": 4058,
      "کیمیا": 4059,
      "اطلس": 4060,
      "عروج": 4061,
      "نخفت": 4062,
      "کرامات": 4063,
      "مرحمت": 4064,
      "آغوش": 4065,
      "ذکرش": 4066,
      "مصلا": 4067,
      "درمانند": 4068,
      "منظور": 4069,
      "الحمی": 4070,
      "خاکیان": 4071,
      "عنبرافشان": 4072,
      "آموز": 4073,
      "شایسته": 4074,
      "پارسا": 4075,
      "پارسایان": 4076,
      "نگوییم": 4077,
      "آتشم": 4078,
      "بگشود": 4079,
      "بگزینم": 4080,
      "لایق": 4081,
      "هلاک": 4082,
      "وضو": 4083,
      "پذیرم": 4084,
      "سرشکم": 4085,
      "اولیتر": 4086,
      "آرزومندی": 4087,
      "غیور": 4088,
      "فقیر": 4089,
      "مخموری": 4090,
      "کبک": 4091,
      "بیامو": 4092,
      "بیاموزد": 4093,
      "شوخش": 4094,
      "عاقلان": 4095,
      "ادراک": 4096,
      "تعبیر": 4097,
      "فکنده": 4098,
      "مسیله": 4099,
      "ماییم": 4100,
      "مفلسی": 4101,
      "دروغ": 4102,
      "ملولم": 4103,
      "بنشانند": 4104,
      "فرصتت": 4105,
      "آشفت": 4106,
      "تجلی": 4107,
      "تجارت": 4108,
      "شورش": 4109,
      "عراقی": 4110,
      "فرقت": 4111,
      "پسران": 4112,
      "کمینه": 4113,
      "کاووس": 4114,
      "دردمند": 4115,
      "تماشاگه": 4116,
      "معذورم": 4117,
      "بسوزد": 4118,
      "بسوزی": 4119,
      "تفسیر": 4120,
      "نکهتی": 4121,
      "پرسیدن": 4122,
      "ناتوانم": 4123,
      "تندخو": 4124,
      "حکیمان": 4125,
      "سحرخی": 4126,
      "ساعد": 4127,
      "ضایع": 4128,
      "ضعیفان": 4129,
      "عطارد": 4130,
      "مگویید": 4131,
      "همرهان": 4132,
      "نگذاشت": 4133,
      "نگیرد": 4134,
      "شکرخا": 4135,
      "شکرخنده": 4136,
      "جنب": 4137,
      "جیحون": 4138,
      "سامری": 4139,
      "سفید": 4140,
      "سفینه": 4141,
      "غرامت": 4142,
      "مسلمانی": 4143,
      "تربتم": 4144,
      "امیدوار": 4145,
      "نشناخت": 4146,
      "نشناسد": 4147,
      "آویز": 4148,
      "شریعت": 4149,
      "صبور": 4150,
      "عقبی": 4151,
      "فزایش": 4152,
      "نچید": 4153,
      "نداریم": 4154,
      "دوزخ": 4155,
      "معاشران": 4156,
      "رفیقی": 4157,
      "لرزان": 4158,
      "لعبتی": 4159,
      "مبتلا": 4160,
      "کبوتر": 4161,
      "میخواران": 4162,
      "برادران": 4163,
      "کنعان": 4164,
      "پیراهن": 4165,
      "معتقد": 4166,
      "دگرباره": 4167,
      "نرسیدیم": 4168,
      "جوزا": 4169,
      "حکایتیست": 4170,
      "پاکیزه": 4171,
      "روحانیان": 4172,
      "برافروخته": 4173,
      "اشتیاق": 4174,
      "تردامن": 4175,
      "تسلیم": 4176,
      "خنجر": 4177,
      "رکاب": 4178,
      "قتیل": 4179,
      "مشهور": 4180,
      "مقرنس": 4181,
      "مخلص": 4182,
      "نادان": 4183,
      "چابک": 4184,
      "یغمای": 4185,
      "درخشان": 4186,
      "نیاورد": 4187,
      "دلربایی": 4188,
      "استغنای": 4189,
      "ماجرای": 4190,
      "غمگین": 4191,
      "مداوا": 4192,
      "اسحاق": 4193,
      "پذیرد": 4194,
      "آمرز": 4195,
      "آهسته": 4196,
      "آزرده": 4197,
      "اخلاق": 4198,
      "تحریر": 4199,
      "دقیقه": 4200,
      "رغبت": 4201,
      "سابقه": 4202,
      "ظاهرا": 4203,
      "عبارت": 4204,
      "قرابه": 4205,
      "لباس": 4206,
      "لاجرم": 4207,
      "مکتب": 4208,
      "نعیم": 4209,
      "وسوسه": 4210,
      "پرویز": 4211,
      "پهلوی": 4212,
      "کاکل": 4213,
      "خونابه": 4214,
      "گردابی": 4215,
      "اقلیم": 4216,
      "نوخاسته": 4217,
      "معلوم": 4218,
      "اعتماد": 4219,
      "سحرخیزان": 4220,
      "آذ": 4221,
      "آشک": 4222,
      "آسو": 4223,
      "آخرا": 4224,
      "آفری": 4225,
      "آراست": 4226,
      "آثار": 4227,
      "آشکار": 4228,
      "آراسته": 4229,
      "اث": 4230,
      "اض": 4231,
      "اصف": 4232,
      "ابیست": 4233,
      "اخلاص": 4234,
      "اظهار": 4235,
      "بث": 4236,
      "بذ": 4237,
      "بمی": 4238,
      "بچه": 4239,
      "بتا": 4240,
      "بکر": 4241,
      "بداد": 4242,
      "بکنی": 4243,
      "بفرو": 4244,
      "ببوی": 4245,
      "بدری": 4246,
      "بجو": 4247,
      "بدهد": 4248,
      "بدید": 4249,
      "بفشان": 4250,
      "بطال": 4251,
      "بزنم": 4252,
      "بمیرم": 4253,
      "بخیل": 4254,
      "بنماید": 4255,
      "بدیدی": 4256,
      "ببخشی": 4257,
      "بذی": 4258,
      "ببندم": 4259,
      "ببخشند": 4260,
      "ببوسم": 4261,
      "بپرسم": 4262,
      "بترس": 4263,
      "بنمایم": 4264,
      "تان": 4265,
      "تبت": 4266,
      "تراب": 4267,
      "تعال": 4268,
      "تکل": 4269,
      "تحت": 4270,
      "تهمت": 4271,
      "تصور": 4272,
      "تتق": 4273,
      "تعلی": 4274,
      "تفق": 4275,
      "تکبر": 4276,
      "تهمتی": 4277,
      "تفضلی": 4278,
      "تفرج": 4279,
      "تبریز": 4280,
      "ثمر": 4281,
      "ثبت": 4282,
      "ثنا": 4283,
      "ثریا": 4284,
      "جذ": 4285,
      "جمی": 4286,
      "جری": 4287,
      "جیم": 4288,
      "جرس": 4289,
      "جاهل": 4290,
      "جستم": 4291,
      "جریده": 4292,
      "حب": 4293,
      "حط": 4294,
      "حنی": 4295,
      "حانی": 4296,
      "حفا": 4297,
      "حسد": 4298,
      "حایل": 4299,
      "حمایل": 4300,
      "حفظ": 4301,
      "خمی": 4302,
      "خنگ": 4303,
      "خمر": 4304,
      "خانی": 4305,
      "خنک": 4306,
      "خارم": 4307,
      "خزانی": 4308,
      "خرسند": 4309,
      "خبث": 4310,
      "دزد": 4311,
      "ذاک": 4312,
      "ذوال": 4313,
      "ذاتم": 4314,
      "رش": 4315,
      "رار": 4316,
      "رده": 4317,
      "ربی": 4318,
      "رهم": 4319,
      "رستی": 4320,
      "رفع": 4321,
      "رتبت": 4322,
      "زک": 4323,
      "زال": 4324,
      "زاید": 4325,
      "زآتش": 4326,
      "زدیم": 4327,
      "زالی": 4328,
      "زاریست": 4329,
      "زبانی": 4330,
      "زرافشان": 4331,
      "سکه": 4332,
      "سمی": 4333,
      "سکن": 4334,
      "سور": 4335,
      "سلو": 4336,
      "ساید": 4337,
      "سبح": 4338,
      "سفری": 4339,
      "سجود": 4340,
      "سفرم": 4341,
      "شف": 4342,
      "شهم": 4343,
      "شانه": 4344,
      "شاب": 4345,
      "شرق": 4346,
      "شدیم": 4347,
      "شمین": 4348,
      "شعش": 4349,
      "شفق": 4350,
      "صت": 4351,
      "صده": 4352,
      "صبی": 4353,
      "صابر": 4354,
      "صحی": 4355,
      "صدارت": 4356,
      "ضت": 4357,
      "طاو": 4358,
      "طین": 4359,
      "طفی": 4360,
      "طبل": 4361,
      "ظری": 4362,
      "عج": 4363,
      "عله": 4364,
      "عفا": 4365,
      "عجز": 4366,
      "عطای": 4367,
      "عابد": 4368,
      "عجیب": 4369,
      "عجوز": 4370,
      "غمن": 4371,
      "غمان": 4372,
      "غره": 4373,
      "غانه": 4374,
      "غرم": 4375,
      "غبن": 4376,
      "غرب": 4377,
      "غلطی": 4378,
      "غبغ": 4379,
      "فش": 4380,
      "فن": 4381,
      "فطر": 4382,
      "فعل": 4383,
      "فصل": 4384,
      "فکنی": 4385,
      "فخر": 4386,
      "فروزی": 4387,
      "فصاح": 4388,
      "فوق": 4389,
      "فزون": 4390,
      "فنای": 4391,
      "فکری": 4392,
      "قش": 4393,
      "قبی": 4394,
      "قام": 4395,
      "قدی": 4396,
      "قهر": 4397,
      "قباد": 4398,
      "قین": 4399,
      "قمر": 4400,
      "قندی": 4401,
      "قطع": 4402,
      "قسام": 4403,
      "قحط": 4404,
      "لش": 4405,
      "لبی": 4406,
      "لام": 4407,
      "لوی": 4408,
      "لخت": 4409,
      "لنا": 4410,
      "لمعه": 4411,
      "لازم": 4412,
      "لنگر": 4413,
      "لغز": 4414,
      "مض": 4415,
      "مپ": 4416,
      "مدم": 4417,
      "مباز": 4418,
      "ملی": 4419,
      "مهی": 4420,
      "متر": 4421,
      "ممکن": 4422,
      "مسا": 4423,
      "مسای": 4424,
      "مشتی": 4425,
      "مگذر": 4426,
      "مریم": 4427,
      "مکنید": 4428,
      "مکاف": 4429,
      "مکارم": 4430,
      "مشرف": 4431,
      "مپیچ": 4432,
      "ممالک": 4433,
      "نژ": 4434,
      "نبا": 4435,
      "نبی": 4436,
      "نتا": 4437,
      "نشک": 4438,
      "نجان": 4439,
      "ناق": 4440,
      "نروی": 4441,
      "نخواه": 4442,
      "نتی": 4443,
      "نفی": 4444,
      "ناید": 4445,
      "نسل": 4446,
      "نزه": 4447,
      "نالی": 4448,
      "ننش": 4449,
      "نبات": 4450,
      "نبینی": 4451,
      "نزنم": 4452,
      "نخرد": 4453,
      "نباشم": 4454,
      "نخوری": 4455,
      "ننوشت": 4456,
      "نخورم": 4457,
      "نتواند": 4458,
      "ننشست": 4459,
      "نشنود": 4460,
      "نصرت": 4461,
      "نطق": 4462,
      "نکویی": 4463,
      "نپرداخت": 4464,
      "هار": 4465,
      "هوی": 4466,
      "وذ": 4467,
      "وم": 4468,
      "وده": 4469,
      "واه": 4470,
      "وسی": 4471,
      "وکی": 4472,
      "واله": 4473,
      "ولو": 4474,
      "وقوف": 4475,
      "پزد": 4476,
      "پاش": 4477,
      "پوید": 4478,
      "پنداشت": 4479,
      "پدرم": 4480,
      "پسین": 4481,
      "پشمین": 4482,
      "چم": 4483,
      "چپ": 4484,
      "چنی": 4485,
      "چشی": 4486,
      "چستی": 4487,
      "چنبر": 4488,
      "چغانه": 4489,
      "ژگون": 4490,
      "کبه": 4491,
      "کرو": 4492,
      "کبود": 4493,
      "کدا": 4494,
      "کور": 4495,
      "کآب": 4496,
      "کدور": 4497,
      "کامت": 4498,
      "کات": 4499,
      "کبری": 4500,
      "کایام": 4501,
      "کبیر": 4502,
      "کآیینه": 4503,
      "کاشکی": 4504,
      "گشود": 4505,
      "گامی": 4506,
      "گزند": 4507,
      "گزیر": 4508,
      "گشوده": 4509,
      "یده": 4510,
      "یشت": 4511,
      "یمین": 4512,
      "یکیست": 4513,
      "یزید": 4514,
      "یلان": 4515,
      "یقین": 4516,
      "انا": 4517,
      "انف": 4518,
      "انده": 4519,
      "انسی": 4520,
      "انشا": 4521,
      "انسان": 4522,
      "انوار": 4523,
      "سترد": 4524,
      "ستمگر": 4525,
      "ایح": 4526,
      "ایف": 4527,
      "ایه": 4528,
      "ایک": 4529,
      "ایاز": 4530,
      "ایامی": 4531,
      "ایها": 4532,
      "ایاغ": 4533,
      "کهنه": 4534,
      "ارس": 4535,
      "ارو": 4536,
      "ارست": 4537,
      "ارچه": 4538,
      "اراک": 4539,
      "ارتی": 4540,
      "ارگان": 4541,
      "ازار": 4542,
      "بهبود": 4543,
      "بهتان": 4544,
      "دران": 4545,
      "درایی": 4546,
      "درآورد": 4547,
      "درستی": 4548,
      "درمانی": 4549,
      "دربازم": 4550,
      "میند": 4551,
      "میرا": 4552,
      "میایی": 4553,
      "میگس": 4554,
      "میسرم": 4555,
      "میگون": 4556,
      "میگسار": 4557,
      "میازار": 4558,
      "برآ": 4559,
      "برج": 4560,
      "بره": 4561,
      "بردو": 4562,
      "برآی": 4563,
      "برانی": 4564,
      "بردارد": 4565,
      "برگیر": 4566,
      "برگرفت": 4567,
      "برافتاد": 4568,
      "برکشم": 4569,
      "برشکن": 4570,
      "بردارند": 4571,
      "بربندم": 4572,
      "برفروخت": 4573,
      "برانیم": 4574,
      "برازد": 4575,
      "برانگیزد": 4576,
      "باج": 4577,
      "بابی": 4578,
      "باکی": 4579,
      "نداند": 4580,
      "ندامت": 4581,
      "راضی": 4582,
      "رامنش": 4583,
      "خوشم": 4584,
      "خورید": 4585,
      "خودرو": 4586,
      "خوبروی": 4587,
      "خودرایی": 4588,
      "رودی": 4589,
      "روری": 4590,
      "روانی": 4591,
      "رواح": 4592,
      "رواج": 4593,
      "تون": 4594,
      "توشه": 4595,
      "توحی": 4596,
      "توکل": 4597,
      "توامان": 4598,
      "تولای": 4599,
      "توقع": 4600,
      "گرمی": 4601,
      "گرانی": 4602,
      "گریست": 4603,
      "گردید": 4604,
      "گردانی": 4605,
      "منا": 4606,
      "منگر": 4607,
      "منیر": 4608,
      "منکر": 4609,
      "منطق": 4610,
      "منحنی": 4611,
      "منقش": 4612,
      "دهدم": 4613,
      "دهمت": 4614,
      "دهید": 4615,
      "الس": 4616,
      "الند": 4617,
      "العمر": 4618,
      "الیست": 4619,
      "الخیر": 4620,
      "الایام": 4621,
      "المدام": 4622,
      "الجمله": 4623,
      "المث": 4624,
      "المنه": 4625,
      "القدس": 4626,
      "الاقی": 4627,
      "الاراک": 4628,
      "بیاو": 4629,
      "بیرم": 4630,
      "بیهو": 4631,
      "بیاید": 4632,
      "بیگان": 4633,
      "بیدارم": 4634,
      "بیضا": 4635,
      "بیداران": 4636,
      "بیچار": 4637,
      "امور": 4638,
      "فتان": 4639,
      "نید": 4640,
      "نیف": 4641,
      "نیلی": 4642,
      "نیاری": 4643,
      "نیکویی": 4644,
      "نیارست": 4645,
      "دلار": 4646,
      "دلیر": 4647,
      "دلقی": 4648,
      "دلیست": 4649,
      "دلفری": 4650,
      "دلسوز": 4651,
      "دلگشای": 4652,
      "دلاور": 4653,
      "دلنواز": 4654,
      "دلپذیر": 4655,
      "اها": 4656,
      "استر": 4657,
      "استاده": 4658,
      "استوار": 4659,
      "استخاره": 4660,
      "استظهار": 4661,
      "ویم": 4662,
      "افز": 4663,
      "افی": 4664,
      "افعی": 4665,
      "افکنم": 4666,
      "افکنی": 4667,
      "افشای": 4668,
      "ریای": 4669,
      "رینی": 4670,
      "ریاست": 4671,
      "ریزی": 4672,
      "ریاح": 4673,
      "ریحانی": 4674,
      "اینه": 4675,
      "وداد": 4676,
      "آنگهی": 4677,
      "چوگانی": 4678,
      "کنشت": 4679,
      "ادار": 4680,
      "ادبیست": 4681,
      "مادی": 4682,
      "ماشتیم": 4683,
      "سران": 4684,
      "سرایی": 4685,
      "سرخی": 4686,
      "سربل": 4687,
      "سرایم": 4688,
      "سرنوشت": 4689,
      "سررشته": 4690,
      "سرخوشی": 4691,
      "نهند": 4692,
      "نهفت": 4693,
      "نهیم": 4694,
      "نهیب": 4695,
      "نهادی": 4696,
      "چهر": 4697,
      "دوان": 4698,
      "دوایی": 4699,
      "دونان": 4700,
      "دوریم": 4701,
      "دوساله": 4702,
      "شینان": 4703,
      "شیفته": 4704,
      "هرکس": 4705,
      "شدند": 4706,
      "شمرم": 4707,
      "شمارم": 4708,
      "شمالم": 4709,
      "شمامه": 4710,
      "شمشیرم": 4711,
      "سیرم": 4712,
      "دارمت": 4713,
      "همدرد": 4714,
      "همصحبت": 4715,
      "همدمی": 4716,
      "حافظش": 4717,
      "حافظم": 4718,
      "تابنده": 4719,
      "اوار": 4720,
      "اوصاف": 4721,
      "اوفتاد": 4722,
      "اوفتد": 4723,
      "اوفتاده": 4724,
      "نگان": 4725,
      "نگون": 4726,
      "نگزی": 4727,
      "نگوید": 4728,
      "بودش": 4729,
      "دمم": 4730,
      "شتم": 4731,
      "شکی": 4732,
      "شکرافشان": 4733,
      "جانبازان": 4734,
      "گلرخ": 4735,
      "گلشنی": 4736,
      "گلعذ": 4737,
      "گلبرگ": 4738,
      "گلعذار": 4739,
      "گلابی": 4740,
      "گلچهر": 4741,
      "دادیم": 4742,
      "گوست": 4743,
      "گوهری": 4744,
      "ورع": 4745,
      "ورقی": 4746,
      "ورزم": 4747,
      "ورطه": 4748,
      "رهای": 4749,
      "رهبر": 4750,
      "رهاست": 4751,
      "گفتنم": 4752,
      "پیل": 4753,
      "پیشان": 4754,
      "پیکر": 4755,
      "پیشه": 4756,
      "پیمایی": 4757,
      "پیمود": 4758,
      "پیرامنش": 4759,
      "بادست": 4760,
      "بادبان": 4761,
      "ابدا": 4762,
      "ابنای": 4763,
      "اقرار": 4764,
      "زلت": 4765,
      "نوشد": 4766,
      "نوگل": 4767,
      "نوشان": 4768,
      "نوسفرم": 4769,
      "خوشگوی": 4770,
      "رمز": 4771,
      "بازو": 4772,
      "بازاری": 4773,
      "بازگشت": 4774,
      "بازآورد": 4775,
      "بازآمده": 4776,
      "بازپوشان": 4777,
      "بازپرسید": 4778,
      "غمخواری": 4779,
      "دانسته": 4780,
      "دانستم": 4781,
      "دانشمند": 4782,
      "نیستی": 4783,
      "نیستیم": 4784,
      "پرمی": 4785,
      "پرصد": 4786,
      "پرخون": 4787,
      "پرشراب": 4788,
      "پرتوی": 4789,
      "پرآشوب": 4790,
      "پرچم": 4791,
      "یارد": 4792,
      "یارش": 4793,
      "یاریست": 4794,
      "چشمان": 4795,
      "آیت": 4796,
      "آیم": 4797,
      "آیدم": 4798,
      "جهل": 4799,
      "جهدی": 4800,
      "مرض": 4801,
      "مردی": 4802,
      "مرهم": 4803,
      "مرکز": 4804,
      "مرگم": 4805,
      "عشقبازان": 4806,
      "کاره": 4807,
      "کارگر": 4808,
      "کارهای": 4809,
      "روزش": 4810,
      "روزیست": 4811,
      "روزگاری": 4812,
      "روزافزون": 4813,
      "نمازم": 4814,
      "یاج": 4815,
      "یابی": 4816,
      "یاسمن": 4817,
      "سوس": 4818,
      "سودی": 4819,
      "سوری": 4820,
      "سواری": 4821,
      "کیف": 4822,
      "کیوان": 4823,
      "کندم": 4824,
      "معرا": 4825,
      "معطر": 4826,
      "معتر": 4827,
      "معاش": 4828,
      "معالی": 4829,
      "معمایی": 4830,
      "معنوی": 4831,
      "معنبر": 4832,
      "معیشت": 4833,
      "معاینه": 4834,
      "خودپرستی": 4835,
      "خودکامی": 4836,
      "خودفروشی": 4837,
      "هیول": 4838,
      "هییت": 4839,
      "طرز": 4840,
      "طراز": 4841,
      "طراری": 4842,
      "طربن": 4843,
      "انیس": 4844,
      "شاهن": 4845,
      "شاهانه": 4846,
      "شاهباز": 4847,
      "ملهم": 4848,
      "ملاح": 4849,
      "ملتم": 4850,
      "ملکوت": 4851,
      "ملایک": 4852,
      "بوله": 4853,
      "بوریا": 4854,
      "بوسد": 4855,
      "تراز": 4856,
      "ترسی": 4857,
      "ترسد": 4858,
      "ترسمت": 4859,
      "اییست": 4860,
      "گیسو": 4861,
      "اگری": 4862,
      "عیبش": 4863,
      "عیسوی": 4864,
      "مستجاب": 4865,
      "زدگان": 4866,
      "شها": 4867,
      "شهباز": 4868,
      "شهریست": 4869,
      "نااهل": 4870,
      "نابرده": 4871,
      "ناچار": 4872,
      "ناجنس": 4873,
      "خیرا": 4874,
      "خیری": 4875,
      "خیزی": 4876,
      "جهانش": 4877,
      "کسم": 4878,
      "کوچه": 4879,
      "کوشم": 4880,
      "کوشیدن": 4881,
      "کوکبه": 4882,
      "باشدت": 4883,
      "باشدش": 4884,
      "نقاش": 4885,
      "نقصان": 4886,
      "اریم": 4887,
      "خاکش": 4888,
      "خاکسار": 4889,
      "لطایف": 4890,
      "دوستکام": 4891,
      "گویان": 4892,
      "کنمش": 4893,
      "تیری": 4894,
      "تیغم": 4895,
      "تیزی": 4896,
      "لها": 4897,
      "محض": 4898,
      "محن": 4899,
      "محک": 4900,
      "محمد": 4901,
      "محفل": 4902,
      "محرمی": 4903,
      "محصول": 4904,
      "صدت": 4905,
      "صدش": 4906,
      "نظاره": 4907,
      "نظارگان": 4908,
      "گذرم": 4909,
      "فرط": 4910,
      "فرجام": 4911,
      "فرسود": 4912,
      "فرازم": 4913,
      "عاج": 4914,
      "عادل": 4915,
      "بندند": 4916,
      "اندکی": 4917,
      "زیرا": 4918,
      "زینهار": 4919,
      "لولو": 4920,
      "علمی": 4921,
      "بردن": 4922,
      "آبش": 4923,
      "سروم": 4924,
      "سروران": 4925,
      "راهش": 4926,
      "راهروی": 4927,
      "افتادی": 4928,
      "هول": 4929,
      "هوال": 4930,
      "خونبار": 4931,
      "امین": 4932,
      "امیدی": 4933,
      "سنجد": 4934,
      "بارند": 4935,
      "شبم": 4936,
      "شبستان": 4937,
      "شبگیری": 4938,
      "صلا": 4939,
      "حرفی": 4940,
      "سخنم": 4941,
      "سخندانی": 4942,
      "بستند": 4943,
      "دادم": 4944,
      "دادست": 4945,
      "دادگرا": 4946,
      "بینایی": 4947,
      "بسپار": 4948,
      "ساقیست": 4949,
      "خمارم": 4950,
      "مجد": 4951,
      "مجرد": 4952,
      "عهدم": 4953,
      "زانم": 4954,
      "رندم": 4955,
      "رندانه": 4956,
      "رندیم": 4957,
      "قدسیان": 4958,
      "توانایی": 4959,
      "احمد": 4960,
      "رساله": 4961,
      "فروگذ": 4962,
      "فروکش": 4963,
      "فروخوان": 4964,
      "فروبسته": 4965,
      "فروریزد": 4966,
      "فاتش": 4967,
      "جرسی": 4968,
      "بنای": 4969,
      "بنشینی": 4970,
      "قتل": 4971,
      "سخنت": 4972,
      "ابرام": 4973,
      "نجوید": 4974,
      "کشش": 4975,
      "کشاف": 4976,
      "کشاکش": 4977,
      "اعد": 4978,
      "نظران": 4979,
      "عاشقم": 4980,
      "عاشقانه": 4981,
      "بویت": 4982,
      "بویش": 4983,
      "بویم": 4984,
      "دایه": 4985,
      "شرمی": 4986,
      "بخند": 4987,
      "بخرام": 4988,
      "سلم": 4989,
      "شکرش": 4990,
      "شکرلب": 4991,
      "شکردهان": 4992,
      "بلکه": 4993,
      "مهش": 4994,
      "مهرور": 4995,
      "مهلتی": 4996,
      "مهجوری": 4997,
      "حالتی": 4998,
      "حالیست": 4999,
      "خردی": 5000,
      "خرگاه": 5001,
      "فلان": 5002,
      "فلکی": 5003,
      "حسنش": 5004,
      "نامم": 5005,
      "نامور": 5006,
      "قیروان": 5007,
      "قیصر": 5008,
      "خطاب": 5009,
      "بدش": 5010,
      "بدن": 5011,
      "بدگو": 5012,
      "بدبین": 5013,
      "قصب": 5014,
      "قصت": 5015,
      "دولتم": 5016,
      "دگرم": 5017,
      "هیچت": 5018,
      "نرست": 5019,
      "نرسید": 5020,
      "صوص": 5021,
      "عمرش": 5022,
      "عمرند": 5023,
      "آتشش": 5024,
      "حاش": 5025,
      "حاسد": 5026,
      "حاصلی": 5027,
      "حاجات": 5028,
      "گشتند": 5029,
      "موت": 5030,
      "موه": 5031,
      "موجه": 5032,
      "موزون": 5033,
      "مومیایی": 5034,
      "پیشگاه": 5035,
      "هزارش": 5036,
      "باشند": 5037,
      "مهرت": 5038,
      "مهربانی": 5039,
      "دریاست": 5040,
      "دریایی": 5041,
      "ساحر": 5042,
      "ساغری": 5043,
      "ساخته": 5044,
      "نازند": 5045,
      "جماد": 5046,
      "حیل": 5047,
      "حیله": 5048,
      "حیوانی": 5049,
      "خرامی": 5050,
      "خرابت": 5051,
      "خراباتی": 5052,
      "خرافات": 5053,
      "خراباتم": 5054,
      "زندم": 5055,
      "صبحت": 5056,
      "صبحدمی": 5057,
      "طربم": 5058,
      "طربخانه": 5059,
      "جوست": 5060,
      "جوابی": 5061,
      "جوهری": 5062,
      "زرش": 5063,
      "سحرت": 5064,
      "کامل": 5065,
      "اتت": 5066,
      "بختم": 5067,
      "بشتاب": 5068,
      "بشستم": 5069,
      "بشنوید": 5070,
      "بشنید": 5071,
      "رازش": 5072,
      "رازداران": 5073,
      "مشکلی": 5074,
      "قلمی": 5075,
      "قلاب": 5076,
      "دردانه": 5077,
      "نقشش": 5078,
      "سایبان": 5079,
      "قربان": 5080,
      "قرآنی": 5081,
      "پایش": 5082,
      "پایبند": 5083,
      "پایمال": 5084,
      "چمنم": 5085,
      "نکشتی": 5086,
      "حقیر": 5087,
      "حقیرم": 5088,
      "مقبل": 5089,
      "مقابل": 5090,
      "مقراض": 5091,
      "مغز": 5092,
      "مغانه": 5093,
      "مغیلان": 5094,
      "مغروری": 5095,
      "داماد": 5096,
      "شرابخانه": 5097,
      "پروا": 5098,
      "پروای": 5099,
      "پروری": 5100,
      "پرورم": 5101,
      "پرورید": 5102,
      "خوابت": 5103,
      "خوابم": 5104,
      "اشعار": 5105,
      "سهلت": 5106,
      "سودم": 5107,
      "فرالله": 5108,
      "مساز": 5109,
      "مساعد": 5110,
      "فلکت": 5111,
      "میانش": 5112,
      "غربت": 5113,
      "سالی": 5114,
      "سالکی": 5115,
      "خویشش": 5116,
      "خاتون": 5117,
      "شنوی": 5118,
      "قومی": 5119,
      "سوختم": 5120,
      "ملکت": 5121,
      "مشنو": 5122,
      "مشفق": 5123,
      "مشعله": 5124,
      "آخرزمان": 5125,
      "پرسند": 5126,
      "نشیمن": 5127,
      "نشینم": 5128,
      "مردان": 5129,
      "چنانم": 5130,
      "وصلت": 5131,
      "نفست": 5132,
      "بگذاری": 5133,
      "بگذشتی": 5134,
      "بگذریم": 5135,
      "بگذران": 5136,
      "سازند": 5137,
      "طریقی": 5138,
      "ارتفاع": 5139,
      "بیارایی": 5140,
      "ابروییست": 5141,
      "نشانه": 5142,
      "نشستی": 5143,
      "خبران": 5144,
      "صحبتش": 5145,
      "خندد": 5146,
      "پریوش": 5147,
      "کاینات": 5148,
      "نهانش": 5149,
      "نهانخانه": 5150,
      "غلامان": 5151,
      "غلغله": 5152,
      "وصلی": 5153,
      "بدهش": 5154,
      "نگارین": 5155,
      "نگارستان": 5156,
      "نوشند": 5157,
      "هجرت": 5158,
      "بدانی": 5159,
      "بدانسان": 5160,
      "زاهدی": 5161,
      "طلع": 5162,
      "طلال": 5163,
      "وفات": 5164,
      "درویی": 5165,
      "خلخ": 5166,
      "خلل": 5167,
      "خلود": 5168,
      "خلقی": 5169,
      "بریخت": 5170,
      "سنگدل": 5171,
      "عملی": 5172,
      "عنب": 5173,
      "عنصر": 5174,
      "بالابل": 5175,
      "همتت": 5176,
      "خاطرت": 5177,
      "خاطرش": 5178,
      "اشکم": 5179,
      "شنیدی": 5180,
      "طوف": 5181,
      "نشاند": 5182,
      "نشانم": 5183,
      "ندیش": 5184,
      "تیرم": 5185,
      "خالش": 5186,
      "خالیست": 5187,
      "عارفی": 5188,
      "پاکت": 5189,
      "بیمارت": 5190,
      "سیاهش": 5191,
      "ناهید": 5192,
      "باشیم": 5193,
      "مرادت": 5194,
      "دامنت": 5195,
      "دامنش": 5196,
      "شادم": 5197,
      "فکرش": 5198,
      "نورانی": 5199,
      "چینان": 5200,
      "کمانکش": 5201,
      "گرانم": 5202,
      "حدیثم": 5203,
      "صیام": 5204,
      "کرمت": 5205,
      "اختلاف": 5206,
      "خیره": 5207,
      "سپارد": 5208,
      "سپاهی": 5209,
      "صافیست": 5210,
      "داشتیم": 5211,
      "حاجتی": 5212,
      "رحلت": 5213,
      "صبریست": 5214,
      "عزیزان": 5215,
      "عزیزم": 5216,
      "انداخته": 5217,
      "خوردم": 5218,
      "خوردن": 5219,
      "مردمک": 5220,
      "ولای": 5221,
      "ولات": 5222,
      "اعتراض": 5223,
      "اعتمادی": 5224,
      "بلندت": 5225,
      "بلنداختر": 5226,
      "بلندبالایی": 5227,
      "حکایتها": 5228,
      "مبادت": 5229,
      "شناسی": 5230,
      "روحیست": 5231,
      "دهانت": 5232,
      "نیکبخت": 5233,
      "تنگم": 5234,
      "تنگدستی": 5235,
      "خدمتی": 5236,
      "دعاگوی": 5237,
      "عاقلی": 5238,
      "اندیشی": 5239,
      "آزادی": 5240,
      "نسق": 5241,
      "کاس": 5242,
      "کاغ": 5243,
      "کاتش": 5244,
      "کاسا": 5245,
      "التجا": 5246,
      "خاموشش": 5247,
      "نگهبان": 5248,
      "طریقه": 5249,
      "جگرم": 5250,
      "وفق": 5251,
      "وفاست": 5252,
      "گناهت": 5253,
      "گناهی": 5254,
      "گناهکاران": 5255,
      "زهدفروشان": 5256,
      "پادشاهت": 5257,
      "خاندان": 5258,
      "گردانند": 5259,
      "نیازمند": 5260,
      "گشایش": 5261,
      "خدمتگار": 5262,
      "حوری": 5263,
      "شکنش": 5264,
      "شکنان": 5265,
      "شرمش": 5266,
      "طبیعت": 5267,
      "قهه": 5268,
      "قهقهه": 5269,
      "مشوش": 5270,
      "پوشم": 5271,
      "پوشید": 5272,
      "گهیم": 5273,
      "نداشتی": 5274,
      "ندهند": 5275,
      "ریاضت": 5276,
      "مدامم": 5277,
      "ببرم": 5278,
      "ببرید": 5279,
      "مذاب": 5280,
      "مروارید": 5281,
      "مالوف": 5282,
      "مالامال": 5283,
      "برگزیده": 5284,
      "فریادست": 5285,
      "سرابی": 5286,
      "سراسر": 5287,
      "سراپای": 5288,
      "نصیبه": 5289,
      "نصیحتی": 5290,
      "ارغنون": 5291,
      "همانا": 5292,
      "شنیدن": 5293,
      "باریک": 5294,
      "سعاد": 5295,
      "سعادتی": 5296,
      "فضول": 5297,
      "لافی": 5298,
      "وجودم": 5299,
      "تماشایی": 5300,
      "ظلمانی": 5301,
      "فرمایی": 5302,
      "قادر": 5303,
      "قاصد": 5304,
      "قاطع": 5305,
      "لاابا": 5306,
      "گزاف": 5307,
      "روشنایی": 5308,
      "حجت": 5309,
      "طایفه": 5310,
      "نعوذ": 5311,
      "پنداری": 5312,
      "پیوستم": 5313,
      "تلف": 5314,
      "مثواه": 5315,
      "چاکران": 5316,
      "سیلاب": 5317,
      "کلاهی": 5318,
      "صورتگر": 5319,
      "بشکند": 5320,
      "بشکاف": 5321,
      "بشکفد": 5322,
      "شامل": 5323,
      "عظم": 5324,
      "چینی": 5325,
      "بستانم": 5326,
      "رضایی": 5327,
      "سریر": 5328,
      "شعری": 5329,
      "هفتصد": 5330,
      "واصل": 5331,
      "واجب": 5332,
      "کیمیاگری": 5333,
      "محرابش": 5334,
      "گذارمت": 5335,
      "جلالش": 5336,
      "دنباله": 5337,
      "عروسی": 5338,
      "نخفته": 5339,
      "نگردی": 5340,
      "کافریست": 5341,
      "گمگشته": 5342,
      "الاصباح": 5343,
      "گلشنش": 5344,
      "ملامتگو": 5345,
      "آغشته": 5346,
      "آغوشش": 5347,
      "جاهی": 5348,
      "قفای": 5349,
      "قفسی": 5350,
      "همنشینی": 5351,
      "همنشینان": 5352,
      "منظری": 5353,
      "الحان": 5354,
      "عنبرین": 5355,
      "آموزی": 5356,
      "آموخته": 5357,
      "اصلی": 5358,
      "ببستند": 5359,
      "سزا": 5360,
      "سزاست": 5361,
      "سزاوار": 5362,
      "سختی": 5363,
      "شایگان": 5364,
      "فالق": 5365,
      "مدهوش": 5366,
      "پارسی": 5367,
      "پارسایی": 5368,
      "نگویند": 5369,
      "نوازش": 5370,
      "فرصتی": 5371,
      "فروشانش": 5372,
      "فراغتی": 5373,
      "حضرتت": 5374,
      "آتشین": 5375,
      "آتشینم": 5376,
      "جمعیت": 5377,
      "حلم": 5378,
      "قانع": 5379,
      "قانون": 5380,
      "لایزالی": 5381,
      "لایموت": 5382,
      "برافروز": 5383,
      "برافکند": 5384,
      "برخیزد": 5385,
      "برخیزند": 5386,
      "نوشتم": 5387,
      "آزادست": 5388,
      "آزادگی": 5389,
      "عافیتت": 5390,
      "بدره": 5391,
      "تمنایی": 5392,
      "خداوندی": 5393,
      "غیبت": 5394,
      "مباح": 5395,
      "مباهات": 5396,
      "پناهی": 5397,
      "باقیست": 5398,
      "همدمان": 5399,
      "کمندت": 5400,
      "آوازه": 5401,
      "حیوانش": 5402,
      "حیوانات": 5403,
      "عذرخواه": 5404,
      "آستینان": 5405,
      "آمیخته": 5406,
      "آشوبی": 5407,
      "بگویمت": 5408,
      "بگوییم": 5409,
      "بگویید": 5410,
      "حسنی": 5411,
      "خروج": 5412,
      "فرهادم": 5413,
      "فکندی": 5414,
      "مفلسان": 5415,
      "نصره": 5416,
      "نصاب": 5417,
      "هشیاری": 5418,
      "درونم": 5419,
      "بیدقی": 5420,
      "دیوانگان": 5421,
      "بسازد": 5422,
      "بنشانم": 5423,
      "طوطیان": 5424,
      "اسیران": 5425,
      "تجمل": 5426,
      "تاریک": 5427,
      "جفایی": 5428,
      "شورانگیز": 5429,
      "نکوست": 5430,
      "نکورویی": 5431,
      "پرداز": 5432,
      "پردازم": 5433,
      "کمینگه": 5434,
      "کمینگاه": 5435,
      "گهربار": 5436,
      "انسانی": 5437,
      "ایستاده": 5438,
      "دردمندان": 5439,
      "احتیاج": 5440,
      "سحرگهان": 5441,
      "بگذشتم": 5442,
      "آشیانه": 5443,
      "آبادست": 5444,
      "تفاوت": 5445,
      "جبینش": 5446,
      "جبینان": 5447,
      "زورش": 5448,
      "غزاله": 5449,
      "فسوس": 5450,
      "ننوشی": 5451,
      "ننوشد": 5452,
      "ننوشم": 5453,
      "ننوشتی": 5454,
      "بریدن": 5455,
      "رقیبت": 5456,
      "مهربانان": 5457,
      "حیرانند": 5458,
      "ذیل": 5459,
      "ساعتی": 5460,
      "صنما": 5461,
      "عطابخش": 5462,
      "عطرسای": 5463,
      "انجمنی": 5464,
      "نگینی": 5465,
      "شکرخای": 5466,
      "پیغامی": 5467,
      "بنشینند": 5468,
      "نازنینان": 5469,
      "بشوییم": 5470,
      "بشویید": 5471,
      "سبکباران": 5472,
      "نشنید": 5473,
      "نشنیده": 5474,
      "پسندد": 5475,
      "افسونگری": 5476,
      "بگریم": 5477,
      "بزرگان": 5478,
      "ببریده": 5479,
      "ببریدم": 5480,
      "خطرناک": 5481,
      "خداداده": 5482,
      "ناکامی": 5483,
      "پنجاه": 5484,
      "کمترم": 5485,
      "گدازم": 5486,
      "گستا": 5487,
      "گزاران": 5488,
      "بربستی": 5489,
      "خوارزم": 5490,
      "پیچد": 5491,
      "زلالش": 5492,
      "امیدوارم": 5493,
      "قلندری": 5494,
      "آلودگی": 5495,
      "عندلیبان": 5496,
      "بپوشانی": 5497,
      "زحمتی": 5498,
      "شریف": 5499,
      "عقده": 5500,
      "فزایی": 5501,
      "مخزن": 5502,
      "چالاکی": 5503,
      "کریمی": 5504,
      "گزیده": 5505,
      "گزیدن": 5506,
      "یزدانی": 5507,
      "درگاهت": 5508,
      "مجلست": 5509,
      "مجلسیان": 5510,
      "بنالد": 5511,
      "بگذارند": 5512,
      "پوشیده": 5513,
      "جادوانه": 5514,
      "بگریزد": 5515,
      "جماش": 5516,
      "جماعت": 5517,
      "رمیم": 5518,
      "رفیع": 5519,
      "زبرجد": 5520,
      "غوغا": 5521,
      "مظهر": 5522,
      "مظلو": 5523,
      "مکدر": 5524,
      "نستر": 5525,
      "نالان": 5526,
      "نجات": 5527,
      "نجاتم": 5528,
      "کبوترم": 5529,
      "گندم": 5530,
      "میخواره": 5531,
      "برابرم": 5532,
      "براندازم": 5533,
      "برافشانم": 5534,
      "تورانشاه": 5535,
      "دلجویی": 5536,
      "کنعانی": 5537,
      "پیراهنی": 5538,
      "ترکیب": 5539,
      "نقلش": 5540,
      "بخرامد": 5541,
      "برافروخت": 5542,
      "بضاعت": 5543,
      "تخمی": 5544,
      "تصویر": 5545,
      "ثواب": 5546,
      "ثوابت": 5547,
      "جلالی": 5548,
      "حماک": 5549,
      "خاوری": 5550,
      "خاتمی": 5551,
      "خاتمت": 5552,
      "دشوار": 5553,
      "رسوم": 5554,
      "سادس": 5555,
      "سمرقندی": 5556,
      "ساحل": 5557,
      "شنگول": 5558,
      "ظاهرپرست": 5559,
      "عبیرآمیز": 5560,
      "متاع": 5561,
      "مطربا": 5562,
      "مطربان": 5563,
      "یاوری": 5564,
      "بربندند": 5565,
      "بیفشانی": 5566,
      "استغنا": 5567,
      "استغفرالله": 5568,
      "افروخت": 5569,
      "وداعش": 5570,
      "شیرینم": 5571,
      "نگشادست": 5572,
      "پیشکاران": 5573,
      "محیط": 5574,
      "هوشیار": 5575,
      "شربتم": 5576,
      "بلغزد": 5577,
      "سحرگاهان": 5578,
      "نفرمود": 5579,
      "گنجینه": 5580,
      "تازیانه": 5581,
      "همنفسی": 5582,
      "مسلمانان": 5583,
      "بصری": 5584,
      "بگفتمی": 5585,
      "بکارمت": 5586,
      "تذروی": 5587,
      "تایبم": 5588,
      "تباهی": 5589,
      "تریاک": 5590,
      "تعلق": 5591,
      "حصار": 5592,
      "خاقان": 5593,
      "دجله": 5594,
      "زجاجی": 5595,
      "سپیده": 5596,
      "شطح": 5597,
      "شبرنگ": 5598,
      "شاعر": 5599,
      "طیره": 5600,
      "طلوع": 5601,
      "طغراکش": 5602,
      "عقیقی": 5603,
      "غفلت": 5604,
      "مزاج": 5605,
      "مگسی": 5606,
      "مزرعه": 5607,
      "نپرسد": 5608,
      "نچیده": 5609,
      "نزدیک": 5610,
      "نباتیست": 5611,
      "کلید": 5612,
      "انگوری": 5613,
      "برساند": 5614,
      "برنجم": 5615,
      "برخوردار": 5616,
      "برآورم": 5617,
      "منبعش": 5618,
      "اوراق": 5619,
      "شکیبایی": 5620,
      "رهنمون": 5621,
      "ملازمت": 5622,
      "بوسیدن": 5623,
      "ناظر": 5624,
      "ناگهان": 5625,
      "عاطفت": 5626,
      "تشریف": 5627,
      "بحمدالله": 5628,
      "بیاسایم": 5629,
      "فراموش": 5630,
      "حوالتم": 5631,
      "بلاغت": 5632,
      "بیاموزی": 5633,
      "آشفتگی": 5634,
      "آمرزش": 5635,
      "آهستهک": 5636,
      "آشکاره": 5637,
      "آسوده": 5638,
      "آخرال": 5639,
      "آفریده": 5640,
      "اثری": 5641,
      "اصفهان": 5642,
      "بذله": 5643,
      "تکلف": 5644,
      "تعلیم": 5645,
      "تفقدی": 5646,
      "حفاظ": 5647,
      "ربیع": 5648,
      "زکاتم": 5649,
      "سکندری": 5650,
      "سلوک": 5651,
      "سبحانی": 5652,
      "شعشعه": 5653,
      "صدهزار": 5654,
      "صحیفه": 5655,
      "طاووس": 5656,
      "طینت": 5657,
      "طفیل": 5658,
      "عفاالله": 5659,
      "غبغب": 5660,
      "فصاحت": 5661,
      "مترسان": 5662,
      "مسایل": 5663,
      "مکافات": 5664,
      "نباتات": 5665,
      "نشکستم": 5666,
      "نخواهند": 5667,
      "نتیجه": 5668,
      "نزهت": 5669,
      "ننشستم": 5670,
      "وکیل": 5671,
      "ولوله": 5672,
      "چنینم": 5673,
      "کروبیان": 5674,
      "کدامین": 5675,
      "کدورت": 5676,
      "ستمگری": 5677,
      "مینداز": 5678,
      "میراث": 5679,
      "میگساران": 5680,
      "خوبرویان": 5681,
      "توحید": 5682,
      "بیهوده": 5683,
      "بیگانگان": 5684,
      "ریاحین": 5685,
      "سربلندی": 5686,
      "گلعذاری": 5687,
      "پیشانی": 5688,
      "معترف": 5689,
      "ملتمسی": 5690,
      "بسپارند": 5691,
      "قاطعان": 5692,
      "لاابالی": 5693,
      "آدی": 5694,
      "آما": 5695,
      "آهم": 5696,
      "آبت": 5697,
      "آخور": 5698,
      "آزم": 5699,
      "آبرو": 5700,
      "آستی": 5701,
      "آخته": 5702,
      "آثر": 5703,
      "آشام": 5704,
      "آگاهی": 5705,
      "آفات": 5706,
      "آسیب": 5707,
      "آبادم": 5708,
      "آفاتش": 5709,
      "اذ": 5710,
      "ااز": 5711,
      "اتر": 5712,
      "اعی": 5713,
      "اتی": 5714,
      "اسل": 5715,
      "اصح": 5716,
      "ادیم": 5717,
      "اتاب": 5718,
      "اطو": 5719,
      "اصه": 5720,
      "اشته": 5721,
      "اخیز": 5722,
      "امنی": 5723,
      "اخضر": 5724,
      "اصلاح": 5725,
      "ادرس": 5726,
      "اعید": 5727,
      "اذا": 5728,
      "اصول": 5729,
      "اجزای": 5730,
      "اسیرم": 5731,
      "اطلال": 5732,
      "بق": 5733,
      "بچ": 5734,
      "ببا": 5735,
      "بدل": 5736,
      "بدی": 5737,
      "بما": 5738,
      "بنگ": 5739,
      "بور": 5740,
      "بکرد": 5741,
      "بانه": 5742,
      "بپر": 5743,
      "بجه": 5744,
      "بلی": 5745,
      "بمر": 5746,
      "بشو": 5747,
      "بعی": 5748,
      "بنا": 5749,
      "بکنم": 5750,
      "بصد": 5751,
      "بزی": 5752,
      "بلو": 5753,
      "بلت": 5754,
      "ببخ": 5755,
      "بگفتم": 5756,
      "بزند": 5757,
      "بطلب": 5758,
      "بکنند": 5759,
      "بگس": 5760,
      "بدیم": 5761,
      "بکردم": 5762,
      "بطل": 5763,
      "بفروش": 5764,
      "بجمال": 5765,
      "بمانی": 5766,
      "بدیدم": 5767,
      "بمال": 5768,
      "بخواست": 5769,
      "بتوانی": 5770,
      "بگردد": 5771,
      "بگز": 5772,
      "بنمود": 5773,
      "بنهد": 5774,
      "بنامی": 5775,
      "بکشت": 5776,
      "بمیر": 5777,
      "بخوری": 5778,
      "بخواند": 5779,
      "بگفتی": 5780,
      "بعید": 5781,
      "بچک": 5782,
      "بگیرم": 5783,
      "بفرستاد": 5784,
      "بچکد": 5785,
      "بگفتمش": 5786,
      "بگشتم": 5787,
      "بضاع": 5788,
      "بلیل": 5789,
      "بفروخت": 5790,
      "بنگارم": 5791,
      "بزاد": 5792,
      "بدایت": 5793,
      "بچینم": 5794,
      "بپوشی": 5795,
      "بپذیر": 5796,
      "بجست": 5797,
      "ببارد": 5798,
      "بقیه": 5799,
      "بدرید": 5800,
      "بپرورد": 5801,
      "بفروشند": 5802,
      "بفرمای": 5803,
      "بنمودم": 5804,
      "بسرشت": 5805,
      "بورز": 5806,
      "بعینی": 5807,
      "بشهاب": 5808,
      "بکوشیم": 5809,
      "بپذیرم": 5810,
      "بنگذاشت": 5811,
      "بفروزی": 5812,
      "بپوید": 5813,
      "بکوشم": 5814,
      "بفرازم": 5815,
      "ببندند": 5816,
      "بپوشم": 5817,
      "بپرداز": 5818,
      "بپیچد": 5819,
      "تز": 5820,
      "تپ": 5821,
      "ترا": 5822,
      "تام": 5823,
      "تنی": 5824,
      "تدار": 5825,
      "تپی": 5826,
      "تیا": 5827,
      "تایی": 5828,
      "تعی": 5829,
      "تمت": 5830,
      "تسخ": 5831,
      "تبس": 5832,
      "تسل": 5833,
      "تحق": 5834,
      "تفری": 5835,
      "تنور": 5836,
      "تکف": 5837,
      "تعزی": 5838,
      "تفرد": 5839,
      "تخیل": 5840,
      "تبم": 5841,
      "تامل": 5842,
      "تبسم": 5843,
      "تلافی": 5844,
      "ثش": 5845,
      "ثه": 5846,
      "ثی": 5847,
      "ثال": 5848,
      "ثرم": 5849,
      "ثاری": 5850,
      "ثمنی": 5851,
      "ثلا": 5852,
      "ثمود": 5853,
      "ثاقی": 5854,
      "ثمری": 5855,
      "ثنای": 5856,
      "ثباتم": 5857,
      "جبر": 5858,
      "جند": 5859,
      "جنی": 5860,
      "جدل": 5861,
      "جنه": 5862,
      "جیر": 5863,
      "جاو": 5864,
      "جدم": 5865,
      "جنا": 5866,
      "جمت": 5867,
      "جون": 5868,
      "جعل": 5869,
      "جناز": 5870,
      "جعن": 5871,
      "جستی": 5872,
      "جمعه": 5873,
      "جنون": 5874,
      "جسمی": 5875,
      "حظ": 5876,
      "حبه": 5877,
      "حبا": 5878,
      "حرا": 5879,
      "حاد": 5880,
      "حدم": 5881,
      "حین": 5882,
      "حاک": 5883,
      "حمد": 5884,
      "حمل": 5885,
      "حمرا": 5886,
      "حاله": 5887,
      "حلو": 5888,
      "حبس": 5889,
      "حکام": 5890,
      "حبش": 5891,
      "حزن": 5892,
      "حول": 5893,
      "حمال": 5894,
      "حمای": 5895,
      "حسبی": 5896,
      "حمیده": 5897,
      "حکیمی": 5898,
      "حاکی": 5899,
      "حبک": 5900,
      "حشورش": 5901,
      "حسودی": 5902,
      "خد": 5903,
      "خز": 5904,
      "خس": 5905,
      "خض": 5906,
      "خف": 5907,
      "خست": 5908,
      "خشم": 5909,
      "ختا": 5910,
      "خاب": 5911,
      "خمت": 5912,
      "خرس": 5913,
      "خشتی": 5914,
      "خستم": 5915,
      "خشنود": 5916,
      "خصوص": 5917,
      "دژ": 5918,
      "دگ": 5919,
      "دند": 5920,
      "دخو": 5921,
      "دعی": 5922,
      "دکان": 5923,
      "دنف": 5924,
      "دغل": 5925,
      "دقیق": 5926,
      "دازد": 5927,
      "دبیرم": 5928,
      "ذج": 5929,
      "ذق": 5930,
      "ذم": 5931,
      "ذای": 5932,
      "ذرو": 5933,
      "ذین": 5934,
      "ذات": 5935,
      "ذوف": 5936,
      "ذلیل": 5937,
      "ذخیره": 5938,
      "رط": 5939,
      "رکه": 5940,
      "راین": 5941,
      "رایی": 5942,
      "رجام": 5943,
      "رسن": 5944,
      "رکنی": 5945,
      "رزان": 5946,
      "ربح": 5947,
      "ردین": 5948,
      "رسیم": 5949,
      "رجب": 5950,
      "رگش": 5951,
      "رعن": 5952,
      "ربودی": 5953,
      "رستم": 5954,
      "ربودن": 5955,
      "رطب": 5956,
      "ربوده": 5957,
      "رجع": 5958,
      "رجیم": 5959,
      "زمی": 5960,
      "زآن": 5961,
      "زشت": 5962,
      "زره": 5963,
      "زیا": 5964,
      "زبو": 5965,
      "زجام": 5966,
      "زجر": 5967,
      "زشتی": 5968,
      "زنگار": 5969,
      "زاشک": 5970,
      "زنیم": 5971,
      "زادم": 5972,
      "زادی": 5973,
      "زادت": 5974,
      "زقه": 5975,
      "زمنی": 5976,
      "زحل": 5977,
      "زایل": 5978,
      "زاکی": 5979,
      "زآنک": 5980,
      "زآنچ": 5981,
      "زخمی": 5982,
      "زخانی": 5983,
      "زبور": 5984,
      "سس": 5985,
      "سفت": 5986,
      "سنی": 5987,
      "سمان": 5988,
      "ساک": 5989,
      "سدان": 5990,
      "سانی": 5991,
      "سبت": 5992,
      "سراب": 5993,
      "سحا": 5994,
      "سطری": 5995,
      "سارت": 5996,
      "سفته": 5997,
      "سارم": 5998,
      "ساران": 5999,
      "سمنی": 6000,
      "سحور": 6001,
      "سزدم": 6002,
      "سفال": 6003,
      "سفتی": 6004,
      "سکون": 6005,
      "سفتنم": 6006,
      "سموم": 6007,
      "شار": 6008,
      "شبا": 6009,
      "شاست": 6010,
      "ششم": 6011,
      "شنم": 6012,
      "شطر": 6013,
      "شفی": 6014,
      "شجر": 6015,
      "شگفتم": 6016,
      "شایم": 6017,
      "شعیب": 6018,
      "شعار": 6019,
      "شستم": 6020,
      "شفیق": 6021,
      "شخصم": 6022,
      "شبهای": 6023,
      "شنگی": 6024,
      "شاکی": 6025,
      "شتابی": 6026,
      "شصت": 6027,
      "شافعی": 6028,
      "صا": 6029,
      "صام": 6030,
      "صدی": 6031,
      "صاد": 6032,
      "صهی": 6033,
      "صفر": 6034,
      "صلو": 6035,
      "صیاد": 6036,
      "صاع": 6037,
      "صغیر": 6038,
      "صالح": 6039,
      "صفتی": 6040,
      "صبغ": 6041,
      "صریر": 6042,
      "ضد": 6043,
      "ضل": 6044,
      "ضایی": 6045,
      "ضها": 6046,
      "ضرند": 6047,
      "ضات": 6048,
      "ضبات": 6049,
      "ضلال": 6050,
      "ضمیرم": 6051,
      "ضرور": 6052,
      "ضنفرم": 6053,
      "طت": 6054,
      "طان": 6055,
      "طامی": 6056,
      "طراب": 6057,
      "طاع": 6058,
      "طیب": 6059,
      "طلس": 6060,
      "طنش": 6061,
      "طقه": 6062,
      "طاهر": 6063,
      "طنز": 6064,
      "طبرت": 6065,
      "ظهر": 6066,
      "ظالم": 6067,
      "عو": 6068,
      "عبی": 6069,
      "عفت": 6070,
      "عنی": 6071,
      "عاد": 6072,
      "عسی": 6073,
      "عتا": 6074,
      "عباد": 6075,
      "عاب": 6076,
      "عاری": 6077,
      "عتی": 6078,
      "عون": 6079,
      "عسل": 6080,
      "عبد": 6081,
      "عامت": 6082,
      "عنک": 6083,
      "عجای": 6084,
      "عطری": 6085,
      "عصی": 6086,
      "عیاران": 6087,
      "عطی": 6088,
      "عقول": 6089,
      "عوض": 6090,
      "عبوس": 6091,
      "عاریست": 6092,
      "عقب": 6093,
      "عودی": 6094,
      "عتابی": 6095,
      "عجل": 6096,
      "عوام": 6097,
      "عزلت": 6098,
      "عسس": 6099,
      "عصا": 6100,
      "عضد": 6101,
      "غاز": 6102,
      "غرو": 6103,
      "غال": 6104,
      "غاست": 6105,
      "غوی": 6106,
      "غاف": 6107,
      "غشم": 6108,
      "غلی": 6109,
      "غنج": 6110,
      "غسل": 6111,
      "غوا": 6112,
      "غاغ": 6113,
      "غساله": 6114,
      "غازی": 6115,
      "غضنفرم": 6116,
      "فک": 6117,
      "فای": 6118,
      "فوی": 6119,
      "فاین": 6120,
      "فما": 6121,
      "فیر": 6122,
      "فقد": 6123,
      "فکم": 6124,
      "فکان": 6125,
      "فهمی": 6126,
      "فصی": 6127,
      "فوار": 6128,
      "فوادی": 6129,
      "فظی": 6130,
      "فصمت": 6131,
      "فساد": 6132,
      "فحبک": 6133,
      "قق": 6134,
      "قم": 6135,
      "قبه": 6136,
      "قوی": 6137,
      "قلی": 6138,
      "قیم": 6139,
      "قبس": 6140,
      "قاع": 6141,
      "قولی": 6142,
      "قلق": 6143,
      "قسم": 6144,
      "قعر": 6145,
      "قباب": 6146,
      "قبسی": 6147,
      "قادی": 6148,
      "قعد": 6149,
      "قایل": 6150,
      "قلیل": 6151,
      "قنبر": 6152,
      "قدوم": 6153,
      "قرینی": 6154,
      "قضات": 6155,
      "لد": 6156,
      "لک": 6157,
      "لنگ": 6158,
      "لشک": 6159,
      "لمع": 6160,
      "لایی": 6161,
      "لتش": 6162,
      "لالی": 6163,
      "لایام": 6164,
      "لعین": 6165,
      "لرز": 6166,
      "لداست": 6167,
      "لاقی": 6168,
      "لسلمی": 6169,
      "لامکان": 6170,
      "لفظ": 6171,
      "لشکری": 6172,
      "لخلخ": 6173,
      "لفظی": 6174,
      "مدل": 6175,
      "مدی": 6176,
      "مجان": 6177,
      "ممد": 6178,
      "ممل": 6179,
      "مکنم": 6180,
      "مفر": 6181,
      "مبار": 6182,
      "مسخ": 6183,
      "مبس": 6184,
      "مقت": 6185,
      "مپیر": 6186,
      "مبوی": 6187,
      "مشر": 6188,
      "مخر": 6189,
      "مداری": 6190,
      "مقی": 6191,
      "مگرد": 6192,
      "مقل": 6193,
      "مصح": 6194,
      "مشن": 6195,
      "مالی": 6196,
      "مروزی": 6197,
      "مخند": 6198,
      "مخلو": 6199,
      "مسوز": 6200,
      "مفشان": 6201,
      "مکرم": 6202,
      "مصاحب": 6203,
      "مفرست": 6204,
      "مطی": 6205,
      "مزو": 6206,
      "مظل": 6207,
      "مدرس": 6208,
      "مبوس": 6209,
      "مپوشان": 6210,
      "مفتح": 6211,
      "مخلد": 6212,
      "مقدس": 6213,
      "مآل": 6214,
      "مضای": 6215,
      "مزید": 6216,
      "مخروش": 6217,
      "ملیک": 6218,
      "مبصر": 6219,
      "مفرح": 6220,
      "مگذران": 6221,
      "مدادی": 6222,
      "مهیم": 6223,
      "مظلم": 6224,
      "مفتو": 6225,
      "مشیت": 6226,
      "مکاره": 6227,
      "مملکت": 6228,
      "مطلع": 6229,
      "مآثر": 6230,
      "نن": 6231,
      "نار": 6232,
      "ننی": 6233,
      "نمد": 6234,
      "نشو": 6235,
      "نفر": 6236,
      "نفرو": 6237,
      "نلت": 6238,
      "نبوی": 6239,
      "نحی": 6240,
      "نسب": 6241,
      "ندرد": 6242,
      "نصف": 6243,
      "نستان": 6244,
      "نفری": 6245,
      "نبینم": 6246,
      "نبخش": 6247,
      "نباید": 6248,
      "ندروی": 6249,
      "نصر": 6250,
      "نعم": 6251,
      "نکرده": 6252,
      "نغن": 6253,
      "نباشی": 6254,
      "نروم": 6255,
      "نخورد": 6256,
      "نبودی": 6257,
      "نخواهی": 6258,
      "نزده": 6259,
      "نسیه": 6260,
      "نخاست": 6261,
      "نگرم": 6262,
      "نطاق": 6263,
      "نخواست": 6264,
      "نتوانی": 6265,
      "نخرم": 6266,
      "نشادی": 6267,
      "نگرفته": 6268,
      "نبریم": 6269,
      "ننمود": 6270,
      "ننگر": 6271,
      "نترسم": 6272,
      "نخیل": 6273,
      "ننهاده": 6274,
      "نبرده": 6275,
      "نجانی": 6276,
      "نحس": 6277,
      "نبانی": 6278,
      "نپرد": 6279,
      "نپرهی": 6280,
      "نفتد": 6281,
      "ننشینی": 6282,
      "نمرده": 6283,
      "نشکفت": 6284,
      "نبوسم": 6285,
      "نبندی": 6286,
      "ننال": 6287,
      "ننمایی": 6288,
      "نبندد": 6289,
      "نرساند": 6290,
      "نزنند": 6291,
      "نپرورد": 6292,
      "نتابم": 6293,
      "نفروشند": 6294,
      "نبض": 6295,
      "نباتم": 6296,
      "نروند": 6297,
      "ننهم": 6298,
      "نخواهیم": 6299,
      "نبوده": 6300,
      "نبودیم": 6301,
      "نپسندی": 6302,
      "ننویسد": 6303,
      "ننگرد": 6304,
      "نرهند": 6305,
      "نفروشم": 6306,
      "نفاع": 6307,
      "ننازد": 6308,
      "نخوانده": 6309,
      "نپذیرد": 6310,
      "ننهند": 6311,
      "نپیمایی": 6312,
      "نزلت": 6313,
      "نترسد": 6314,
      "نشنوی": 6315,
      "ننشینم": 6316,
      "نگردانند": 6317,
      "نپوشید": 6318,
      "نپنداری": 6319,
      "نپسندد": 6320,
      "نثاری": 6321,
      "هام": 6322,
      "هنی": 6323,
      "هما": 6324,
      "هنم": 6325,
      "هبو": 6326,
      "هایی": 6327,
      "هنا": 6328,
      "هنج": 6329,
      "هدف": 6330,
      "هجرم": 6331,
      "هذا": 6332,
      "هجری": 6333,
      "هدهدم": 6334,
      "هضبات": 6335,
      "وک": 6336,
      "واست": 6337,
      "واف": 6338,
      "ونه": 6339,
      "وشت": 6340,
      "وگو": 6341,
      "ونم": 6342,
      "وعی": 6343,
      "وبان": 6344,
      "وزار": 6345,
      "ولت": 6346,
      "وجو": 6347,
      "وات": 6348,
      "وسم": 6349,
      "واره": 6350,
      "وجب": 6351,
      "ونیم": 6352,
      "واس": 6353,
      "وحد": 6354,
      "وجد": 6355,
      "ومکان": 6356,
      "وآنچه": 6357,
      "وختم": 6358,
      "وزید": 6359,
      "وآغاز": 6360,
      "وسیان": 6361,
      "وصول": 6362,
      "وثاق": 6363,
      "وآنگه": 6364,
      "وآوازه": 6365,
      "وثاقی": 6366,
      "وطنش": 6367,
      "پرا": 6368,
      "پور": 6369,
      "پاب": 6370,
      "پرم": 6371,
      "پابر": 6372,
      "پگاه": 6373,
      "پندار": 6374,
      "پندارد": 6375,
      "پستی": 6376,
      "پارم": 6377,
      "پستم": 6378,
      "پالا": 6379,
      "پهن": 6380,
      "پختن": 6381,
      "پشنگ": 6382,
      "پامال": 6383,
      "پویم": 6384,
      "پنداشتی": 6385,
      "چان": 6386,
      "چست": 6387,
      "چمی": 6388,
      "چنم": 6389,
      "چکی": 6390,
      "چید": 6391,
      "چاش": 6392,
      "چارت": 6393,
      "چرخت": 6394,
      "چیدن": 6395,
      "چتری": 6396,
      "چرده": 6397,
      "ژنده": 6398,
      "کفت": 6399,
      "کاه": 6400,
      "کاست": 6401,
      "کدو": 6402,
      "کشو": 6403,
      "کآمد": 6404,
      "کفا": 6405,
      "کاید": 6406,
      "کآورد": 6407,
      "کتاب": 6408,
      "کشدم": 6409,
      "کآفتاب": 6410,
      "کآلوده": 6411,
      "کسرای": 6412,
      "کالا": 6413,
      "کآرزوی": 6414,
      "کتابی": 6415,
      "کآشفته": 6416,
      "کتابم": 6417,
      "کثیر": 6418,
      "کبابی": 6419,
      "کآشفتگی": 6420,
      "کآزم": 6421,
      "گاز": 6422,
      "گام": 6423,
      "گزل": 6424,
      "گسل": 6425,
      "گزین": 6426,
      "گمش": 6427,
      "گداخت": 6428,
      "گمانی": 6429,
      "گنده": 6430,
      "گزید": 6431,
      "گاشت": 6432,
      "گزینم": 6433,
      "گاوی": 6434,
      "گنجه": 6435,
      "یای": 6436,
      "ینی": 6437,
      "یسر": 6438,
      "یشم": 6439,
      "یکر": 6440,
      "یکز": 6441,
      "یزند": 6442,
      "یخا": 6443,
      "یحت": 6444,
      "یتق": 6445,
      "یسار": 6446,
      "یابد": 6447,
      "یاور": 6448,
      "یکون": 6449,
      "یذوق": 6450,
      "یازد": 6451,
      "یکسان": 6452,
      "یوم": 6453,
      "یقتل": 6454,
      "یجعل": 6455,
      "یحاکی": 6456,
      "یسارت": 6457,
      "یلداست": 6458,
      "انش": 6459,
      "انم": 6460,
      "انوی": 6461,
      "انین": 6462,
      "انکر": 6463,
      "اننا": 6464,
      "انبار": 6465,
      "انسیم": 6466,
      "انجم": 6467,
      "انگار": 6468,
      "انتق": 6469,
      "انشین": 6470,
      "اندامی": 6471,
      "انقلاب": 6472,
      "انبانه": 6473,
      "انعامت": 6474,
      "انگاشت": 6475,
      "ستد": 6476,
      "ستر": 6477,
      "ستانی": 6478,
      "ستاند": 6479,
      "ستدیم": 6480,
      "ستاده": 6481,
      "ایخ": 6482,
      "ایای": 6483,
      "ایرا": 6484,
      "ایلت": 6485,
      "ایازم": 6486,
      "ایذج": 6487,
      "ایغاغ": 6488,
      "کهگل": 6489,
      "کهلال": 6490,
      "کهکشان": 6491,
      "ارا": 6492,
      "ارنی": 6493,
      "اردی": 6494,
      "ارمت": 6495,
      "ارزان": 6496,
      "ارزم": 6497,
      "ارکان": 6498,
      "ارتم": 6499,
      "ارادتی": 6500,
      "اردوان": 6501,
      "اربعینی": 6502,
      "ازه": 6503,
      "ازین": 6504,
      "ازرخ": 6505,
      "ازیم": 6506,
      "ازنده": 6507,
      "ازکفر": 6508,
      "بهل": 6509,
      "بهم": 6510,
      "بهرا": 6511,
      "بهین": 6512,
      "بهروزی": 6513,
      "بهرام": 6514,
      "بهمنی": 6515,
      "بهروزیست": 6516,
      "درا": 6517,
      "درر": 6518,
      "درمی": 6519,
      "دربر": 6520,
      "درود": 6521,
      "درهم": 6522,
      "درنگ": 6523,
      "درجا": 6524,
      "درخواه": 6525,
      "درجهان": 6526,
      "دربان": 6527,
      "دریم": 6528,
      "درداد": 6529,
      "درگیر": 6530,
      "درکوی": 6531,
      "درگیرد": 6532,
      "درگرفت": 6533,
      "دربری": 6534,
      "درهای": 6535,
      "درفشان": 6536,
      "درنکرد": 6537,
      "درکشد": 6538,
      "درکشم": 6539,
      "درآرد": 6540,
      "دربحر": 6541,
      "درنبرد": 6542,
      "درکشیم": 6543,
      "درگاهی": 6544,
      "دراندازیم": 6545,
      "درچینم": 6546,
      "درخشید": 6547,
      "درافکن": 6548,
      "درنیاو": 6549,
      "درنگرفت": 6550,
      "درافکنم": 6551,
      "درگذرم": 6552,
      "درساخته": 6553,
      "درانداخته": 6554,
      "درننوشتی": 6555,
      "میم": 6556,
      "میام": 6557,
      "میری": 6558,
      "میدم": 6559,
      "میگو": 6560,
      "میلی": 6561,
      "میانی": 6562,
      "میرفت": 6563,
      "میامی": 6564,
      "میدیم": 6565,
      "میفشان": 6566,
      "میقات": 6567,
      "میارید": 6568,
      "میثاق": 6569,
      "میندیش": 6570,
      "برسی": 6571,
      "برجه": 6572,
      "برتر": 6573,
      "برکنی": 6574,
      "برخور": 6575,
      "برقی": 6576,
      "برقص": 6577,
      "برآو": 6578,
      "برگیرد": 6579,
      "برات": 6580,
      "برسم": 6581,
      "بردارم": 6582,
      "برکردم": 6583,
      "برتاب": 6584,
      "برمدار": 6585,
      "برافتد": 6586,
      "برفشان": 6587,
      "برنکرد": 6588,
      "براعت": 6589,
      "برگشته": 6590,
      "برشده": 6591,
      "بروید": 6592,
      "برگرفته": 6593,
      "برقرار": 6594,
      "برندارم": 6595,
      "براتم": 6596,
      "برکشیده": 6597,
      "برفکن": 6598,
      "برآمی": 6599,
      "برگذشت": 6600,
      "برفکنم": 6601,
      "برنکنم": 6602,
      "بردمد": 6603,
      "برشکست": 6604,
      "براندازیم": 6605,
      "برداشتم": 6606,
      "بردوز": 6607,
      "برچینم": 6608,
      "برآمیز": 6609,
      "برآرند": 6610,
      "برتابم": 6611,
      "برگشتی": 6612,
      "برگرفتی": 6613,
      "برجنان": 6614,
      "برفروز": 6615,
      "برآریم": 6616,
      "برنگیرد": 6617,
      "برفروزی": 6618,
      "برانداخته": 6619,
      "برفکندی": 6620,
      "برازنده": 6621,
      "برمیدم": 6622,
      "باف": 6623,
      "باه": 6624,
      "باتو": 6625,
      "بافت": 6626,
      "بادو": 6627,
      "باشت": 6628,
      "بالی": 6629,
      "باشه": 6630,
      "بابل": 6631,
      "بامش": 6632,
      "باوفا": 6633,
      "باخته": 6634,
      "باهنر": 6635,
      "باکمر": 6636,
      "باقرار": 6637,
      "باادب": 6638,
      "بادیست": 6639,
      "بافد": 6640,
      "باژگون": 6641,
      "ندای": 6642,
      "ندمان": 6643,
      "ندمد": 6644,
      "ندمت": 6645,
      "نداده": 6646,
      "ندادی": 6647,
      "ندوانی": 6648,
      "رابا": 6649,
      "رامن": 6650,
      "رابی": 6651,
      "راشد": 6652,
      "راسی": 6653,
      "رامح": 6654,
      "راخته": 6655,
      "راوق": 6656,
      "رالعین": 6657,
      "خوف": 6658,
      "خوست": 6659,
      "خوگر": 6660,
      "خونی": 6661,
      "خویم": 6662,
      "خواره": 6663,
      "خواران": 6664,
      "خوگرم": 6665,
      "خواریست": 6666,
      "خودرویی": 6667,
      "روب": 6668,
      "روث": 6669,
      "روار": 6670,
      "رومی": 6671,
      "روشی": 6672,
      "روشم": 6673,
      "روانه": 6674,
      "روها": 6675,
      "روایت": 6676,
      "روشتی": 6677,
      "روایتی": 6678,
      "روشیم": 6679,
      "روایح": 6680,
      "روضها": 6681,
      "روباه": 6682,
      "تول": 6683,
      "توشد": 6684,
      "توتی": 6685,
      "توسن": 6686,
      "توالی": 6687,
      "توراست": 6688,
      "تواتر": 6689,
      "توتیا": 6690,
      "توسنی": 6691,
      "توفیر": 6692,
      "گرگ": 6693,
      "گربه": 6694,
      "گرما": 6695,
      "گرهی": 6696,
      "گرزلف": 6697,
      "گریم": 6698,
      "گردیدن": 6699,
      "گردها": 6700,
      "منذ": 6701,
      "منن": 6702,
      "منک": 6703,
      "مناز": 6704,
      "منهی": 6705,
      "منامی": 6706,
      "مناع": 6707,
      "منجم": 6708,
      "منته": 6709,
      "منازل": 6710,
      "منادی": 6711,
      "منعت": 6712,
      "منعش": 6713,
      "منیع": 6714,
      "منزوی": 6715,
      "منشور": 6716,
      "منافق": 6717,
      "منکران": 6718,
      "منوشان": 6719,
      "منجذ": 6720,
      "منافی": 6721,
      "دهش": 6722,
      "دهرا": 6723,
      "دهنی": 6724,
      "دهاد": 6725,
      "دهاق": 6726,
      "دهانی": 6727,
      "الک": 6728,
      "الفت": 6729,
      "الآن": 6730,
      "الما": 6731,
      "الدار": 6732,
      "الانه": 6733,
      "الرم": 6734,
      "الجه": 6735,
      "اللی": 6736,
      "الکی": 6737,
      "العل": 6738,
      "الیم": 6739,
      "الساقی": 6740,
      "المج": 6741,
      "العه": 6742,
      "الاید": 6743,
      "الحال": 6744,
      "القی": 6745,
      "الجو": 6746,
      "الملک": 6747,
      "الحاج": 6748,
      "الصبر": 6749,
      "الفراق": 6750,
      "المنت": 6751,
      "الاول": 6752,
      "السلامت": 6753,
      "السلطان": 6754,
      "الغزل": 6755,
      "الاس": 6756,
      "الخص": 6757,
      "الحکم": 6758,
      "الطاق": 6759,
      "العین": 6760,
      "الکرا": 6761,
      "البرق": 6762,
      "الکمال": 6763,
      "الفتی": 6764,
      "الدنیا": 6765,
      "العذار": 6766,
      "القاه": 6767,
      "الراح": 6768,
      "العرش": 6769,
      "القال": 6770,
      "الدینم": 6771,
      "الصباح": 6772,
      "الزلال": 6773,
      "السبیل": 6774,
      "النهی": 6775,
      "الظلمات": 6776,
      "الضمان": 6777,
      "الصمد": 6778,
      "الکرام": 6779,
      "الدینی": 6780,
      "الابو": 6781,
      "السلسبیل": 6782,
      "القمر": 6783,
      "الوده": 6784,
      "الکات": 6785,
      "الوداد": 6786,
      "الربح": 6787,
      "العباد": 6788,
      "اللالی": 6789,
      "النعم": 6790,
      "التوالی": 6791,
      "بیب": 6792,
      "بیز": 6793,
      "بیس": 6794,
      "بیشم": 6795,
      "بیخود": 6796,
      "بیانی": 6797,
      "بیتش": 6798,
      "بیزار": 6799,
      "بیخم": 6800,
      "بینیم": 6801,
      "بیضه": 6802,
      "بیفکن": 6803,
      "بیفتد": 6804,
      "بینوای": 6805,
      "بیفشاند": 6806,
      "بیارید": 6807,
      "بیندیش": 6808,
      "بیالاید": 6809,
      "امک": 6810,
      "امانی": 6811,
      "امامت": 6812,
      "امروزی": 6813,
      "امادی": 6814,
      "امثال": 6815,
      "امساک": 6816,
      "فتم": 6817,
      "فتادم": 6818,
      "فتادیم": 6819,
      "نیاف": 6820,
      "نیکن": 6821,
      "نیشم": 6822,
      "نیکم": 6823,
      "نیمه": 6824,
      "نیمش": 6825,
      "نیندی": 6826,
      "نیابد": 6827,
      "نیفکند": 6828,
      "نیفتد": 6829,
      "نیالوده": 6830,
      "دلنو": 6831,
      "دلاله": 6832,
      "دلها": 6833,
      "دلنشان": 6834,
      "دلهای": 6835,
      "دلکشم": 6836,
      "دلگشا": 6837,
      "دلشده": 6838,
      "دلفریب": 6839,
      "دلدوز": 6840,
      "دلپذی": 6841,
      "دلفروز": 6842,
      "دلهار": 6843,
      "دلگرمی": 6844,
      "دلالیست": 6845,
      "دلشادم": 6846,
      "دلستانی": 6847,
      "دیق": 6848,
      "دیل": 6849,
      "دیشان": 6850,
      "دیاری": 6851,
      "دینان": 6852,
      "دیجور": 6853,
      "دیگرم": 6854,
      "اهب": 6855,
      "اهد": 6856,
      "اهای": 6857,
      "اهری": 6858,
      "اهمل": 6859,
      "اهمت": 6860,
      "اهمال": 6861,
      "اهتمام": 6862,
      "استما": 6863,
      "استادم": 6864,
      "استطاعت": 6865,
      "استفتاح": 6866,
      "استمداد": 6867,
      "استطاب": 6868,
      "استدلالیست": 6869,
      "ویی": 6870,
      "ویند": 6871,
      "ویدان": 6872,
      "ویسید": 6873,
      "افعال": 6874,
      "افروزی": 6875,
      "افگار": 6876,
      "افزو": 6877,
      "افزود": 6878,
      "افکاران": 6879,
      "افسرد": 6880,
      "افراخته": 6881,
      "ریب": 6882,
      "ریو": 6883,
      "ریزه": 6884,
      "ریدش": 6885,
      "ریخته": 6886,
      "ریحان": 6887,
      "ریسمان": 6888,
      "اینت": 6889,
      "اینان": 6890,
      "ودم": 6891,
      "ودشان": 6892,
      "وداعی": 6893,
      "آنش": 6894,
      "آنست": 6895,
      "آنگهش": 6896,
      "کنه": 6897,
      "کنچه": 6898,
      "کنارت": 6899,
      "ردست": 6900,
      "ادای": 6901,
      "ادعو": 6902,
      "ماش": 6903,
      "ماک": 6904,
      "مامن": 6905,
      "ماعی": 6906,
      "ماتم": 6907,
      "ماچین": 6908,
      "مامنی": 6909,
      "ماوا": 6910,
      "ماکشتی": 6911,
      "ماچان": 6912,
      "سرش": 6913,
      "سرمه": 6914,
      "سرایت": 6915,
      "سرگشت": 6916,
      "سرشتی": 6917,
      "سرانداز": 6918,
      "سرگران": 6919,
      "سرحلقه": 6920,
      "سربلند": 6921,
      "سرحد": 6922,
      "سرگرم": 6923,
      "سرجمله": 6924,
      "سرچشمه": 6925,
      "سرگرفته": 6926,
      "سرآمدی": 6927,
      "سرسبز": 6928,
      "سرکشیده": 6929,
      "سرکشان": 6930,
      "سرفراز": 6931,
      "سربازان": 6932,
      "سربریده": 6933,
      "سرفکنده": 6934,
      "سرخوشم": 6935,
      "سرگرانی": 6936,
      "سرگردانی": 6937,
      "سرفرازم": 6938,
      "سرزمی": 6939,
      "نهکو": 6940,
      "نهشتی": 6941,
      "نهفتنم": 6942,
      "دوار": 6943,
      "دودر": 6944,
      "دوده": 6945,
      "دوشی": 6946,
      "دواند": 6947,
      "دودیده": 6948,
      "دوراه": 6949,
      "دواش": 6950,
      "دوخته": 6951,
      "دومنی": 6952,
      "دوشینم": 6953,
      "دولتش": 6954,
      "شیند": 6955,
      "شیخی": 6956,
      "شیدیم": 6957,
      "شیران": 6958,
      "شییه": 6959,
      "شیطان": 6960,
      "هرچه": 6961,
      "هرجا": 6962,
      "هربان": 6963,
      "هرکجا": 6964,
      "هرآینه": 6965,
      "هرگزم": 6966,
      "شدت": 6967,
      "شدش": 6968,
      "شداد": 6969,
      "شدنم": 6970,
      "شمس": 6971,
      "شمست": 6972,
      "شمایی": 6973,
      "شمعی": 6974,
      "شممت": 6975,
      "شمایلت": 6976,
      "شمریدش": 6977,
      "سیخ": 6978,
      "سیده": 6979,
      "سیما": 6980,
      "سیاو": 6981,
      "سیلی": 6982,
      "سیمت": 6983,
      "سیراب": 6984,
      "سیستان": 6985,
      "سیریست": 6986,
      "سیهیم": 6987,
      "سیفک": 6988,
      "سیامک": 6989,
      "داریم": 6990,
      "دارویی": 6991,
      "همند": 6992,
      "همتا": 6993,
      "همتش": 6994,
      "همخانه": 6995,
      "همسایه": 6996,
      "همسری": 6997,
      "همعنان": 6998,
      "همدرس": 6999,
      "همدستان": 7000,
      "همکاران": 7001,
      "همانیم": 7002,
      "همواره": 7003,
      "حافظت": 7004,
      "حافظان": 7005,
      "تاک": 7006,
      "تافت": 7007,
      "تاخت": 7008,
      "تابو": 7009,
      "تابد": 7010,
      "تابش": 7011,
      "تاآخر": 7012,
      "تاخیر": 7013,
      "تاخته": 7014,
      "تاتاری": 7015,
      "تاجوری": 7016,
      "یرند": 7017,
      "یرغم": 7018,
      "یرجعن": 7019,
      "یرزقه": 7020,
      "یرغوی": 7021,
      "اوتی": 7022,
      "اوقاف": 7023,
      "اوهام": 7024,
      "نگسل": 7025,
      "نگشتی": 7026,
      "نگارت": 7027,
      "نگشته": 7028,
      "نگفته": 7029,
      "نگزید": 7030,
      "نگینم": 7031,
      "نگشوده": 7032,
      "نگماشتیم": 7033,
      "نگشایم": 7034,
      "نگیرند": 7035,
      "بودست": 7036,
      "بودمی": 7037,
      "دمت": 7038,
      "دمار": 7039,
      "دمساز": 7040,
      "دموع": 7041,
      "دموعی": 7042,
      "شتگان": 7043,
      "ختنم": 7044,
      "مانده": 7045,
      "ماننده": 7046,
      "مانعش": 7047,
      "شکده": 7048,
      "شکنی": 7049,
      "شکستی": 7050,
      "شکایتی": 7051,
      "شکفتی": 7052,
      "شکریست": 7053,
      "شکرهاست": 7054,
      "جاند": 7055,
      "جانانی": 7056,
      "جانداری": 7057,
      "جانبخش": 7058,
      "گلو": 7059,
      "گلگو": 7060,
      "گلدست": 7061,
      "گلگشت": 7062,
      "گلزاری": 7063,
      "گلریز": 7064,
      "گلرخی": 7065,
      "گلخن": 7066,
      "گلزاریست": 7067,
      "گلشنم": 7068,
      "گلنار": 7069,
      "داج": 7070,
      "داس": 7071,
      "داعی": 7072,
      "داشته": 7073,
      "گواست": 7074,
      "گوشان": 7075,
      "گوشو": 7076,
      "گواهی": 7077,
      "گوهیم": 7078,
      "گوارانند": 7079,
      "گورش": 7080,
      "ورت": 7081,
      "ورم": 7082,
      "ورنه": 7083,
      "ورزد": 7084,
      "ورزی": 7085,
      "ورزند": 7086,
      "وردیست": 7087,
      "رهروی": 7088,
      "رهیم": 7089,
      "رهنشین": 7090,
      "رهزنان": 7091,
      "گفتار": 7092,
      "گفتمی": 7093,
      "گفتنیست": 7094,
      "لبشر": 7095,
      "لبانت": 7096,
      "پیشم": 7097,
      "پیشت": 7098,
      "پیروی": 7099,
      "پیکی": 7100,
      "پیاده": 7101,
      "پیمانی": 7102,
      "پیشین": 7103,
      "پیمای": 7104,
      "پیلبان": 7105,
      "پیراسته": 7106,
      "کردت": 7107,
      "کردنی": 7108,
      "کردمت": 7109,
      "بادام": 7110,
      "بادپیما": 7111,
      "ابق": 7112,
      "ابن": 7113,
      "ابچه": 7114,
      "ابله": 7115,
      "ابون": 7116,
      "ابلق": 7117,
      "ابوال": 7118,
      "اقف": 7119,
      "اقامت": 7120,
      "اقات": 7121,
      "اقدام": 7122,
      "اقلام": 7123,
      "اقتدار": 7124,
      "ینام": 7125,
      "ینادی": 7126,
      "ینفع": 7127,
      "اکا": 7128,
      "اکب": 7129,
      "اکبر": 7130,
      "اکراه": 7131,
      "اکسیریست": 7132,
      "زلالی": 7133,
      "زلیخا": 7134,
      "نوم": 7135,
      "نوبه": 7136,
      "نواست": 7137,
      "نوروز": 7138,
      "نوشتی": 7139,
      "نوجوان": 7140,
      "نوشیم": 7141,
      "نوعروس": 7142,
      "نوحه": 7143,
      "نوشیدن": 7144,
      "نوبهاری": 7145,
      "نواها": 7146,
      "نوآموخته": 7147,
      "دستش": 7148,
      "دستور": 7149,
      "دستخوش": 7150,
      "دستانی": 7151,
      "دسترس": 7152,
      "دستکش": 7153,
      "دستگه": 7154,
      "دستوری": 7155,
      "دستگیرم": 7156,
      "خوشگو": 7157,
      "خوشخوانی": 7158,
      "خوشخوار": 7159,
      "بازند": 7160,
      "بازگو": 7161,
      "بازداد": 7162,
      "بازبین": 7163,
      "بازنج": 7164,
      "بازکش": 7165,
      "بازدهد": 7166,
      "بازبینم": 7167,
      "بازارت": 7168,
      "بازنشان": 7169,
      "بازچین": 7170,
      "بازروم": 7171,
      "بازآیی": 7172,
      "بازارم": 7173,
      "بازخواست": 7174,
      "بازبیند": 7175,
      "بازگردد": 7176,
      "بازرسم": 7177,
      "بازکشید": 7178,
      "بازدهند": 7179,
      "بازخواند": 7180,
      "بازرسی": 7181,
      "بازگذاری": 7182,
      "بازنما": 7183,
      "بازگیری": 7184,
      "بازنست": 7185,
      "بازنیاید": 7186,
      "بازگرفتی": 7187,
      "غمخور": 7188,
      "غمازم": 7189,
      "غمخوار": 7190,
      "غمزدگان": 7191,
      "دانان": 7192,
      "دانای": 7193,
      "دانشی": 7194,
      "دانیم": 7195,
      "دانمش": 7196,
      "نیستت": 7197,
      "نیستش": 7198,
      "نیستم": 7199,
      "نیستیست": 7200,
      "پرآب": 7201,
      "پرشکر": 7202,
      "پرلعل": 7203,
      "پرزر": 7204,
      "پرنقش": 7205,
      "پرخواب": 7206,
      "پرشکن": 7207,
      "پربلا": 7208,
      "پرخمار": 7209,
      "پرگلاب": 7210,
      "پرگهر": 7211,
      "پرجوش": 7212,
      "پردلان": 7213,
      "پرپیچ": 7214,
      "پرگاری": 7215,
      "پرتابی": 7216,
      "پرنیرنگ": 7217,
      "پرظری": 7218,
      "یارا": 7219,
      "یاره": 7220,
      "یارند": 7221,
      "آیند": 7222,
      "جهتی": 7223,
      "جهیم": 7224,
      "جهتم": 7225,
      "جهالت": 7226,
      "لیت": 7227,
      "لیان": 7228,
      "لیست": 7229,
      "لیله": 7230,
      "لیلای": 7231,
      "رویا": 7232,
      "روید": 7233,
      "مربی": 7234,
      "مرشد": 7235,
      "مرجان": 7236,
      "مرغم": 7237,
      "مرعی": 7238,
      "مرفه": 7239,
      "مرساد": 7240,
      "مرنجان": 7241,
      "عشقند": 7242,
      "عشقیم": 7243,
      "کارا": 7244,
      "کارگه": 7245,
      "کارستان": 7246,
      "کارافتاده": 7247,
      "کاروانی": 7248,
      "کارفرمای": 7249,
      "روزم": 7250,
      "روزنه": 7251,
      "روزها": 7252,
      "روزنامه": 7253,
      "مدایح": 7254,
      "نماست": 7255,
      "نمرد": 7256,
      "نمکی": 7257,
      "نمرود": 7258,
      "نموید": 7259,
      "نمونه": 7260,
      "یات": 7261,
      "سوکو": 7262,
      "سوزه": 7263,
      "سوالی": 7264,
      "سواریست": 7265,
      "سودیست": 7266,
      "سواقی": 7267,
      "سودها": 7268,
      "سوگوارانند": 7269,
      "سوابق": 7270,
      "کیان": 7271,
      "کینی": 7272,
      "کیشم": 7273,
      "کیستی": 7274,
      "کیقباد": 7275,
      "کندش": 7276,
      "کندلان": 7277,
      "معک": 7278,
      "معبر": 7279,
      "معین": 7280,
      "معلق": 7281,
      "معتق": 7282,
      "معقول": 7283,
      "معرض": 7284,
      "معدلت": 7285,
      "معدود": 7286,
      "معصیت": 7287,
      "معجون": 7288,
      "معرکه": 7289,
      "معالجه": 7290,
      "خودشان": 7291,
      "خودبینی": 7292,
      "خودفروشان": 7293,
      "خودپسند": 7294,
      "خودپسندی": 7295,
      "جاعل": 7296,
      "جاویدان": 7297,
      "رخصه": 7298,
      "رخیز": 7299,
      "رخصت": 7300,
      "شوست": 7301,
      "شوقی": 7302,
      "شورید": 7303,
      "طرح": 7304,
      "طرار": 7305,
      "طرحی": 7306,
      "انیست": 7307,
      "شاهیست": 7308,
      "شاهوش": 7309,
      "شاهبازی": 7310,
      "شاهوار": 7311,
      "شاهبازان": 7312,
      "شاهینم": 7313,
      "شاهراهیست": 7314,
      "شاهوشی": 7315,
      "ملاف": 7316,
      "ملکو": 7317,
      "ملکش": 7318,
      "ملولی": 7319,
      "ملحق": 7320,
      "ملالی": 7321,
      "ملحد": 7322,
      "ملامه": 7323,
      "ملاقات": 7324,
      "بوزد": 7325,
      "بواله": 7326,
      "بوته": 7327,
      "بوادی": 7328,
      "بوتن": 7329,
      "بواسح": 7330,
      "بواسحاق": 7331,
      "بواتت": 7332,
      "بونصر": 7333,
      "ترش": 7334,
      "ترکش": 7335,
      "ترکم": 7336,
      "ترشح": 7337,
      "تربیت": 7338,
      "تربیتش": 7339,
      "رقمی": 7340,
      "رقاب": 7341,
      "رقمت": 7342,
      "رقعه": 7343,
      "رقصی": 7344,
      "گیست": 7345,
      "گینه": 7346,
      "گیریم": 7347,
      "اگرچه": 7348,
      "اگردان": 7349,
      "جامش": 7350,
      "جامع": 7351,
      "عیبی": 7352,
      "عیدی": 7353,
      "عیشم": 7354,
      "زلفم": 7355,
      "مستیست": 7356,
      "مستغنی": 7357,
      "مستعد": 7358,
      "مستظهر": 7359,
      "مستعجل": 7360,
      "مستقیم": 7361,
      "مستوجب": 7362,
      "بتخانه": 7363,
      "بتراشد": 7364,
      "کرر": 7365,
      "کرمی": 7366,
      "زداید": 7367,
      "شهان": 7368,
      "شهنش": 7369,
      "شهنامه": 7370,
      "شهلا": 7371,
      "شهبازم": 7372,
      "شهسواری": 7373,
      "شهپرم": 7374,
      "ناسن": 7375,
      "ناحق": 7376,
      "ناساز": 7377,
      "ناامید": 7378,
      "نادروی": 7379,
      "ناخل": 7380,
      "ناگفته": 7381,
      "نادیدن": 7382,
      "ناتمام": 7383,
      "ناپیدا": 7384,
      "نادره": 7385,
      "ناگهش": 7386,
      "ناصواب": 7387,
      "ناشنیده": 7388,
      "ناامیدم": 7389,
      "ناگهم": 7390,
      "ناانصاف": 7391,
      "نابینا": 7392,
      "ناشناسان": 7393,
      "ناسره": 7394,
      "ناخوانده": 7395,
      "ناگزیر": 7396,
      "ناگشوده": 7397,
      "نادران": 7398,
      "ناامیدی": 7399,
      "نابینایی": 7400,
      "ناپروا": 7401,
      "ناشادم": 7402,
      "ناخشنود": 7403,
      "ناسفته": 7404,
      "ناطقه": 7405,
      "متش": 7406,
      "متی": 7407,
      "متهم": 7408,
      "متصل": 7409,
      "متفق": 7410,
      "متنفر": 7411,
      "خیص": 7412,
      "خیبر": 7413,
      "خیام": 7414,
      "جهانند": 7415,
      "جهانگیر": 7416,
      "جهانبانی": 7417,
      "بانان": 7418,
      "بانکم": 7419,
      "کسری": 7420,
      "کسمه": 7421,
      "کوب": 7422,
      "کوری": 7423,
      "کوشی": 7424,
      "کوثرم": 7425,
      "کواکب": 7426,
      "نقص": 7427,
      "نقشت": 7428,
      "نقدیست": 7429,
      "نقدها": 7430,
      "نقشها": 7431,
      "خاکبوس": 7432,
      "خاکروب": 7433,
      "لطه": 7434,
      "دوستدار": 7435,
      "گویای": 7436,
      "مرادی": 7437,
      "مراتب": 7438,
      "تیزه": 7439,
      "تیمار": 7440,
      "فیف": 7441,
      "فیه": 7442,
      "فیمروزی": 7443,
      "محب": 7444,
      "محو": 7445,
      "محصل": 7446,
      "محتش": 7447,
      "محکم": 7448,
      "محجو": 7449,
      "محقر": 7450,
      "محکمی": 7451,
      "محزون": 7452,
      "محابا": 7453,
      "محقق": 7454,
      "محرابی": 7455,
      "محرومی": 7456,
      "محاکا": 7457,
      "صدای": 7458,
      "صداست": 7459,
      "صدایی": 7460,
      "صدقی": 7461,
      "صدساله": 7462,
      "صدشبه": 7463,
      "نظمی": 7464,
      "نظام": 7465,
      "نظامی": 7466,
      "نظمش": 7467,
      "نظرها": 7468,
      "گذارت": 7469,
      "فرض": 7470,
      "فرسای": 7471,
      "فرآباد": 7472,
      "فرشتگان": 7473,
      "عادی": 7474,
      "عاطر": 7475,
      "عادلش": 7476,
      "رفتی": 7477,
      "رفتار": 7478,
      "رفتنم": 7479,
      "رفتیم": 7480,
      "بندان": 7481,
      "بندیم": 7482,
      "اندک": 7483,
      "زیبی": 7484,
      "زیانی": 7485,
      "زیبنده": 7486,
      "زیادتی": 7487,
      "زیردست": 7488,
      "علف": 7489,
      "علوی": 7490,
      "علما": 7491,
      "علامت": 7492,
      "علیرغم": 7493,
      "بردمی": 7494,
      "برداد": 7495,
      "بردمیده": 7496,
      "آبم": 7497,
      "آبدار": 7498,
      "آبخور": 7499,
      "آبخورد": 7500,
      "آبدارت": 7501,
      "آبگینه": 7502,
      "سروت": 7503,
      "سرودی": 7504,
      "سروبن": 7505,
      "سروبالای": 7506,
      "سروبالا": 7507,
      "سروقام": 7508,
      "شودت": 7509,
      "شودم": 7510,
      "آیدش": 7511,
      "راها": 7512,
      "راهب": 7513,
      "راهبر": 7514,
      "راهزن": 7515,
      "راهگذارت": 7516,
      "افتم": 7517,
      "افتی": 7518,
      "افتان": 7519,
      "افتند": 7520,
      "افتتح": 7521,
      "افتخار": 7522,
      "هوم": 7523,
      "هوشم": 7524,
      "هوسی": 7525,
      "هوهو": 7526,
      "هوسن": 7527,
      "هوایت": 7528,
      "هوسم": 7529,
      "هوشمند": 7530,
      "هوادار": 7531,
      "آمدن": 7532,
      "خوناب": 7533,
      "خونبهای": 7534,
      "خونریز": 7535,
      "سنت": 7536,
      "سنان": 7537,
      "سنجاب": 7538,
      "سنبلت": 7539,
      "سنجند": 7540,
      "باره": 7541,
      "بارانی": 7542,
      "بارمت": 7543,
      "شبل": 7544,
      "شبنم": 7545,
      "شبگرد": 7546,
      "شبخیز": 7547,
      "شبپره": 7548,
      "شبخیزان": 7549,
      "شبخیزی": 7550,
      "صلایی": 7551,
      "صلحی": 7552,
      "تشبیه": 7553,
      "تشنگان": 7554,
      "تشخیص": 7555,
      "حرکت": 7556,
      "حرکات": 7557,
      "حرارتم": 7558,
      "سخا": 7559,
      "سخنان": 7560,
      "سخندان": 7561,
      "سخطت": 7562,
      "کزدوست": 7563,
      "هاش": 7564,
      "هادی": 7565,
      "یکدل": 7566,
      "یکاد": 7567,
      "یکدگر": 7568,
      "یکادی": 7569,
      "یکتای": 7570,
      "یادت": 7571,
      "یادگاری": 7572,
      "بستاند": 7573,
      "بستیم": 7574,
      "بستگان": 7575,
      "بستیز": 7576,
      "بستیزد": 7577,
      "بستیزند": 7578,
      "بستگیست": 7579,
      "دادت": 7580,
      "دادش": 7581,
      "دادگر": 7582,
      "دادمش": 7583,
      "دادخواهی": 7584,
      "بینت": 7585,
      "بینان": 7586,
      "بینند": 7587,
      "زارت": 7588,
      "زارش": 7589,
      "زارم": 7590,
      "صباست": 7591,
      "خورت": 7592,
      "خورند": 7593,
      "خوردیم": 7594,
      "بسش": 7595,
      "بسان": 7596,
      "بسمل": 7597,
      "بسپری": 7598,
      "بسپرد": 7599,
      "بسطامی": 7600,
      "بسپارم": 7601,
      "خموشم": 7602,
      "مجالی": 7603,
      "مجمره": 7604,
      "مجازی": 7605,
      "عهدیست": 7606,
      "واندر": 7607,
      "وانزل": 7608,
      "زانوی": 7609,
      "زانجا": 7610,
      "رندیست": 7611,
      "رندسوزم": 7612,
      "قدحت": 7613,
      "توانستی": 7614,
      "توانگرا": 7615,
      "احبا": 7616,
      "احدی": 7617,
      "احلی": 7618,
      "احمق": 7619,
      "احتم": 7620,
      "احسان": 7621,
      "احادی": 7622,
      "احمریم": 7623,
      "احتراز": 7624,
      "احسانی": 7625,
      "احمدی": 7626,
      "احیای": 7627,
      "رسدم": 7628,
      "رسالت": 7629,
      "فروشد": 7630,
      "فروشت": 7631,
      "فروداری": 7632,
      "فروکشد": 7633,
      "فرومانی": 7634,
      "فروبرده": 7635,
      "فروبردم": 7636,
      "فرومگذار": 7637,
      "فرونیاید": 7638,
      "فرونگذاشت": 7639,
      "فروردین": 7640,
      "فروبستگیست": 7641,
      "فاسال": 7642,
      "فاسق": 7643,
      "خداشناس": 7644,
      "جرب": 7645,
      "بنشستم": 7646,
      "بنازیم": 7647,
      "بنویسید": 7648,
      "بنشیند": 7649,
      "جزا": 7650,
      "جزم": 7651,
      "جزو": 7652,
      "جزایی": 7653,
      "جزاش": 7654,
      "قتال": 7655,
      "قتلی": 7656,
      "قتالیست": 7657,
      "ماهر": 7658,
      "ماهش": 7659,
      "سخنش": 7660,
      "سخنانی": 7661,
      "سخنسرای": 7662,
      "سخنرانی": 7663,
      "سخنورم": 7664,
      "ابروش": 7665,
      "ابریشم": 7666,
      "نجف": 7667,
      "نجیم": 7668,
      "نجنبانی": 7669,
      "نجویند": 7670,
      "کشنده": 7671,
      "کشمیری": 7672,
      "کشندمان": 7673,
      "اعق": 7674,
      "اعمی": 7675,
      "اعضا": 7676,
      "اعمال": 7677,
      "اعضای": 7678,
      "پیرایه": 7679,
      "پیرهنم": 7680,
      "گهت": 7681,
      "نظربازم": 7682,
      "نظربازان": 7683,
      "نظرانند": 7684,
      "عاشقیست": 7685,
      "بویان": 7686,
      "دایما": 7687,
      "دایمت": 7688,
      "شرطه": 7689,
      "شربتی": 7690,
      "بخست": 7691,
      "بخفت": 7692,
      "بخشم": 7693,
      "بخرم": 7694,
      "بخشید": 7695,
      "بخشدم": 7696,
      "بخندان": 7697,
      "بخندید": 7698,
      "بخفتی": 7699,
      "بخلد": 7700,
      "بخارا": 7701,
      "بخروشم": 7702,
      "سلک": 7703,
      "سلسبی": 7704,
      "سلاسل": 7705,
      "سلحشورش": 7706,
      "سلماک": 7707,
      "کمالی": 7708,
      "کمروار": 7709,
      "شکربار": 7710,
      "شکرستان": 7711,
      "شکرفشان": 7712,
      "شکرفروش": 7713,
      "شکرشکن": 7714,
      "شکرریزی": 7715,
      "شکردهنی": 7716,
      "بلاد": 7717,
      "بلایی": 7718,
      "بلاگردان": 7719,
      "مهد": 7720,
      "مهل": 7721,
      "مهدی": 7722,
      "مهری": 7723,
      "مهیا": 7724,
      "مهتاب": 7725,
      "مهجور": 7726,
      "مهمات": 7727,
      "مهراف": 7728,
      "مهتابی": 7729,
      "دورانی": 7730,
      "دورترک": 7731,
      "شیداست": 7732,
      "خرج": 7733,
      "خرما": 7734,
      "خرگه": 7735,
      "خرگهی": 7736,
      "خرمنی": 7737,
      "بحل": 7738,
      "فلا": 7739,
      "فلکه": 7740,
      "فلاح": 7741,
      "فلکم": 7742,
      "فلاط": 7743,
      "فلعلی": 7744,
      "اندرین": 7745,
      "اندرونم": 7746,
      "نامزد": 7747,
      "ناممکن": 7748,
      "نامساع": 7749,
      "نامهربان": 7750,
      "نامکرر": 7751,
      "خویی": 7752,
      "خوییست": 7753,
      "داریش": 7754,
      "داریدم": 7755,
      "قینی": 7756,
      "قیصرت": 7757,
      "قیمتش": 7758,
      "خطان": 7759,
      "خطای": 7760,
      "خطاف": 7761,
      "خطری": 7762,
      "خطرم": 7763,
      "خطریست": 7764,
      "خطابخش": 7765,
      "خطرهاست": 7766,
      "لعلم": 7767,
      "بدخو": 7768,
      "بدگوی": 7769,
      "بدنان": 7770,
      "بدحال": 7771,
      "بدکاری": 7772,
      "بدگهر": 7773,
      "بدپسند": 7774,
      "بدگویان": 7775,
      "بیاسا": 7776,
      "بیاساید": 7777,
      "قصارت": 7778,
      "قصیده": 7779,
      "قصرهای": 7780,
      "هستم": 7781,
      "هستند": 7782,
      "گردند": 7783,
      "گردشان": 7784,
      "گردنان": 7785,
      "گردنت": 7786,
      "گردآلود": 7787,
      "دولتت": 7788,
      "دولتخواهم": 7789,
      "دولتخواهی": 7790,
      "دولتسرای": 7791,
      "دگرت": 7792,
      "هیچم": 7793,
      "هیچکس": 7794,
      "زمانش": 7795,
      "زمانم": 7796,
      "نران": 7797,
      "نراند": 7798,
      "نرگست": 7799,
      "نرنجد": 7800,
      "نرنجیم": 7801,
      "سیمای": 7802,
      "سیمایی": 7803,
      "سیمبری": 7804,
      "سیمبران": 7805,
      "صوف": 7806,
      "صوابت": 7807,
      "صوابی": 7808,
      "صواعق": 7809,
      "آتشگون": 7810,
      "آتشناک": 7811,
      "حات": 7812,
      "حاضر": 7813,
      "حادیست": 7814,
      "حاشاک": 7815,
      "حاسدان": 7816,
      "حاضرند": 7817,
      "عالش": 7818,
      "مکنش": 7819,
      "گشتمی": 7820,
      "شمعش": 7821,
      "شمعم": 7822,
      "زهاد": 7823,
      "موست": 7824,
      "موده": 7825,
      "موری": 7826,
      "موجب": 7827,
      "موجود": 7828,
      "موعظ": 7829,
      "موتمن": 7830,
      "موعد": 7831,
      "موافق": 7832,
      "موقوف": 7833,
      "موسمی": 7834,
      "مولوی": 7835,
      "موسوس": 7836,
      "مواعید": 7837,
      "موروث": 7838,
      "مواهب": 7839,
      "مواقف": 7840,
      "مولیان": 7841,
      "موهوم": 7842,
      "هزارت": 7843,
      "هزارم": 7844,
      "هزارآو": 7845,
      "هزارساله": 7846,
      "هزارداماد": 7847,
      "ربع": 7848,
      "ربانی": 7849,
      "ربایی": 7850,
      "ربایان": 7851,
      "مهرش": 7852,
      "مهره": 7853,
      "مهرپرور": 7854,
      "مهرآیین": 7855,
      "مهرگیاه": 7856,
      "مهرگسل": 7857,
      "دریدن": 7858,
      "لطفش": 7859,
      "ساختم": 7860,
      "ساغرم": 7861,
      "چندم": 7862,
      "چندینی": 7863,
      "گاهش": 7864,
      "گاهم": 7865,
      "آوخ": 7866,
      "آواره": 7867,
      "آوازم": 7868,
      "آورید": 7869,
      "نازم": 7870,
      "نازیر": 7871,
      "نازها": 7872,
      "نازپرور": 7873,
      "نازکت": 7874,
      "نازپرورد": 7875,
      "گیردم": 7876,
      "خیالیم": 7877,
      "خیالاتی": 7878,
      "جمالی": 7879,
      "حیث": 7880,
      "حیای": 7881,
      "خرامش": 7882,
      "زندش": 7883,
      "مگرت": 7884,
      "مگرم": 7885,
      "مگریز": 7886,
      "زمرد": 7887,
      "زمزم": 7888,
      "صبحگهیم": 7889,
      "گرفتند": 7890,
      "گرفتاری": 7891,
      "ولیک": 7892,
      "لقا": 7893,
      "لقب": 7894,
      "طربش": 7895,
      "طربسرای": 7896,
      "جواز": 7897,
      "جوشد": 7898,
      "جوشم": 7899,
      "جوشان": 7900,
      "جواهر": 7901,
      "جوشیم": 7902,
      "جوشیدن": 7903,
      "زردی": 7904,
      "زرنگار": 7905,
      "زرفشان": 7906,
      "زرکشم": 7907,
      "زرکشیده": 7908,
      "زرکشت": 7909,
      "زراندو": 7910,
      "زردرویی": 7911,
      "سحرخوان": 7912,
      "سحرفریب": 7913,
      "سحرآفرین": 7914,
      "سحرگهم": 7915,
      "کامد": 7916,
      "کاملی": 7917,
      "کامروا": 7918,
      "کامرانی": 7919,
      "آهخته": 7920,
      "اتساق": 7921,
      "اتحاد": 7922,
      "اتحادیست": 7923,
      "بختش": 7924,
      "بختیاران": 7925,
      "بشری": 7926,
      "بشوید": 7927,
      "بشنود": 7928,
      "بشارتی": 7929,
      "رازدار": 7930,
      "طلبکار": 7931,
      "طلبکاری": 7932,
      "کانجا": 7933,
      "کانصاف": 7934,
      "کانوا": 7935,
      "سبق": 7936,
      "سببش": 7937,
      "سببیست": 7938,
      "قلزم": 7939,
      "قلاش": 7940,
      "دردت": 7941,
      "دردسر": 7942,
      "دردکشی": 7943,
      "دردنوش": 7944,
      "دردآش": 7945,
      "دردآلود": 7946,
      "دردمید": 7947,
      "دردنوشان": 7948,
      "سایلی": 7949,
      "صحت": 7950,
      "قرت": 7951,
      "قرض": 7952,
      "قرن": 7953,
      "قرصه": 7954,
      "قرارم": 7955,
      "قربها": 7956,
      "قرارانند": 7957,
      "پایم": 7958,
      "پایدار": 7959,
      "پایاب": 7960,
      "پایداری": 7961,
      "پاینده": 7962,
      "پایگهش": 7963,
      "پایکوب": 7964,
      "چمنی": 7965,
      "چمنیست": 7966,
      "کلامی": 7967,
      "کلامت": 7968,
      "کلهیم": 7969,
      "زنش": 7970,
      "نکال": 7971,
      "نکشم": 7972,
      "نکشت": 7973,
      "نکشید": 7974,
      "نکاشت": 7975,
      "حقایق": 7976,
      "عربیست": 7977,
      "مقدر": 7978,
      "مقال": 7979,
      "مقله": 7980,
      "مقدور": 7981,
      "مقداری": 7982,
      "مقسم": 7983,
      "مقتول": 7984,
      "مقابله": 7985,
      "کننده": 7986,
      "زیرش": 7987,
      "زیرکی": 7988,
      "زیرکان": 7989,
      "زیرکیست": 7990,
      "سویت": 7991,
      "سویدا": 7992,
      "سویدای": 7993,
      "صفیرم": 7994,
      "صفاها": 7995,
      "مغنی": 7996,
      "مغاک": 7997,
      "مغرق": 7998,
      "مغتنم": 7999,
      "مغلطه": 8000,
      "جایا": 8001,
      "جایم": 8002,
      "جایست": 8003,
      "دامش": 8004,
      "دامان": 8005,
      "رنگش": 8006,
      "رنگم": 8007,
      "شرابش": 8008,
      "شرابم": 8009,
      "شرابخوار": 8010,
      "شرابخواره": 8011,
      "پرواز": 8012,
      "پروازم": 8013,
      "پروریده": 8014,
      "پروینم": 8015,
      "کشیدی": 8016,
      "کشیدیم": 8017,
      "خوابگه": 8018,
      "اشهی": 8019,
      "اشارتی": 8020,
      "فراش": 8021,
      "فراقی": 8022,
      "فرامش": 8023,
      "مسکنم": 8024,
      "مسعود": 8025,
      "مسجدم": 8026,
      "مسعودی": 8027,
      "مسالک": 8028,
      "مسکینی": 8029,
      "نبودت": 8030,
      "مرغیست": 8031,
      "فلکشان": 8032,
      "تهوی": 8033,
      "نسیمم": 8034,
      "گسسته": 8035,
      "میانت": 8036,
      "میانم": 8037,
      "میانداری": 8038,
      "ندارند": 8039,
      "دیمش": 8040,
      "عالمم": 8041,
      "عالمگیر": 8042,
      "غرت": 8043,
      "خوانم": 8044,
      "خواندیم": 8045,
      "سالیست": 8046,
      "سالوسیان": 8047,
      "خاطری": 8048,
      "خاصیت": 8049,
      "خاصان": 8050,
      "شنبه": 8051,
      "شنفت": 8052,
      "شنفتنم": 8053,
      "قوب": 8054,
      "قوس": 8055,
      "قوما": 8056,
      "قوافل": 8057,
      "روانش": 8058,
      "روانم": 8059,
      "گریزد": 8060,
      "گریزان": 8061,
      "گریوه": 8062,
      "سوختن": 8063,
      "سوختیم": 8064,
      "بلبلت": 8065,
      "مشکن": 8066,
      "مشامی": 8067,
      "مشعلی": 8068,
      "مشغله": 8069,
      "مشایخ": 8070,
      "مشورت": 8071,
      "کجدلم": 8072,
      "آوردش": 8073,
      "آوردم": 8074,
      "آوردمش": 8075,
      "آخرت": 8076,
      "آخرچه": 8077,
      "بابلی": 8078,
      "پرسد": 8079,
      "پرسش": 8080,
      "پرسمن": 8081,
      "پرسشی": 8082,
      "افتادگی": 8083,
      "افتادگان": 8084,
      "نشینیم": 8085,
      "نشیمنم": 8086,
      "الیقینی": 8087,
      "دیدش": 8088,
      "مردن": 8089,
      "مردانه": 8090,
      "مردافکن": 8091,
      "جبلت": 8092,
      "فریبی": 8093,
      "فریبت": 8094,
      "فریدون": 8095,
      "فریادر": 8096,
      "فریادرس": 8097,
      "گارانند": 8098,
      "بینمت": 8099,
      "بینمش": 8100,
      "تمند": 8101,
      "تمکین": 8102,
      "نفع": 8103,
      "نفیر": 8104,
      "نفعی": 8105,
      "نفرین": 8106,
      "نفسم": 8107,
      "نفحه": 8108,
      "نفحات": 8109,
      "گوشش": 8110,
      "اندازش": 8111,
      "اندازم": 8112,
      "اندازه": 8113,
      "اندازی": 8114,
      "عهدت": 8115,
      "عهدشکن": 8116,
      "آرمیده": 8117,
      "آرایش": 8118,
      "بگذشته": 8119,
      "بگذارد": 8120,
      "سازیم": 8121,
      "سازگاری": 8122,
      "بیارد": 8123,
      "بیارای": 8124,
      "بیارمت": 8125,
      "بیاراید": 8126,
      "بعدها": 8127,
      "نشدی": 8128,
      "نشوی": 8129,
      "نشگفت": 8130,
      "نشنوم": 8131,
      "بلبلش": 8132,
      "بلبلانیم": 8133,
      "خبرت": 8134,
      "خبرش": 8135,
      "خبرند": 8136,
      "خبرگیر": 8137,
      "حکمی": 8138,
      "خندم": 8139,
      "خندید": 8140,
      "پریم": 8141,
      "باغچه": 8142,
      "نهانت": 8143,
      "نهانم": 8144,
      "شیرینت": 8145,
      "شیرینش": 8146,
      "شیرینتر": 8147,
      "بخشایش": 8148,
      "بخششیت": 8149,
      "نرگسش": 8150,
      "نرگسدان": 8151,
      "جوید": 8152,
      "جویباران": 8153,
      "غلمان": 8154,
      "غلغلی": 8155,
      "وصمت": 8156,
      "وصالی": 8157,
      "گشایم": 8158,
      "گشادم": 8159,
      "خواجو": 8160,
      "بدهند": 8161,
      "بدهیست": 8162,
      "چنگی": 8163,
      "چنگزخانی": 8164,
      "دلیلی": 8165,
      "تابدار": 8166,
      "نگارد": 8167,
      "نگارنده": 8168,
      "خورشیدکلاه": 8169,
      "حتام": 8170,
      "هجرک": 8171,
      "منزلت": 8172,
      "منزلی": 8173,
      "ترکانه": 8174,
      "بداند": 8175,
      "بدانم": 8176,
      "بدانست": 8177,
      "بدانند": 8178,
      "بداندیشان": 8179,
      "زاهدا": 8180,
      "زاهدیست": 8181,
      "طلاق": 8182,
      "طلاقی": 8183,
      "عقلش": 8184,
      "عقلم": 8185,
      "وفاتم": 8186,
      "پادشا": 8187,
      "پاداش": 8188,
      "پادشایی": 8189,
      "پادشهم": 8190,
      "پادشاست": 8191,
      "برواد": 8192,
      "خلدم": 8193,
      "خللی": 8194,
      "خلقت": 8195,
      "خلعت": 8196,
      "خلایق": 8197,
      "خلاصه": 8198,
      "خلوص": 8199,
      "بریزد": 8200,
      "بریزی": 8201,
      "بریزید": 8202,
      "سنگت": 8203,
      "سنگش": 8204,
      "سنگی": 8205,
      "سنگسان": 8206,
      "شهرآشوبی": 8207,
      "عمود": 8208,
      "عماد": 8209,
      "عمدا": 8210,
      "عماری": 8211,
      "عمایم": 8212,
      "عنانی": 8213,
      "عنبری": 8214,
      "عنبیست": 8215,
      "غیرتم": 8216,
      "بالش": 8217,
      "بالعراق": 8218,
      "بالینم": 8219,
      "باللوی": 8220,
      "بالانشین": 8221,
      "بالتواتر": 8222,
      "همتان": 8223,
      "ساغرت": 8224,
      "ساغرگیر": 8225,
      "اشکبار": 8226,
      "زبانت": 8227,
      "زبانش": 8228,
      "زبانان": 8229,
      "طوع": 8230,
      "طوفانی": 8231,
      "ندیمی": 8232,
      "تیرها": 8233,
      "تیراندازی": 8234,
      "خالت": 8235,
      "خالص": 8236,
      "خالق": 8237,
      "دمیدیم": 8238,
      "غریو": 8239,
      "هایش": 8240,
      "هایل": 8241,
      "پاکباز": 8242,
      "پاکروی": 8243,
      "پاکدلی": 8244,
      "پاکوبان": 8245,
      "پاکدینان": 8246,
      "بیمارم": 8247,
      "سیاهم": 8248,
      "قدحم": 8249,
      "دعاست": 8250,
      "دعوت": 8251,
      "دعوای": 8252,
      "دعاهای": 8253,
      "مطربم": 8254,
      "مرادبخش": 8255,
      "صوفیانه": 8256,
      "بسیط": 8257,
      "ببردند": 8258,
      "حدیست": 8259,
      "حدیقه": 8260,
      "نتوانم": 8261,
      "نتوانست": 8262,
      "نتوانند": 8263,
      "دامنم": 8264,
      "دامنی": 8265,
      "دامنگیر": 8266,
      "مستیز": 8267,
      "مستیش": 8268,
      "گذراند": 8269,
      "گذرگاه": 8270,
      "شادت": 8271,
      "شادان": 8272,
      "شاداب": 8273,
      "شادخواران": 8274,
      "قدرم": 8275,
      "لالا": 8276,
      "رندانم": 8277,
      "وصالم": 8278,
      "خرابتر": 8279,
      "نورسته": 8280,
      "نورزید": 8281,
      "چینت": 8282,
      "کمانخانه": 8283,
      "کمانداران": 8284,
      "کماندارت": 8285,
      "گرانان": 8286,
      "گرانجانی": 8287,
      "حدیثش": 8288,
      "کفم": 8289,
      "کفنم": 8290,
      "کفنان": 8291,
      "کفایتی": 8292,
      "افتدت": 8293,
      "صیل": 8294,
      "صیدم": 8295,
      "صیقلی": 8296,
      "فشانش": 8297,
      "فشاندم": 8298,
      "فشانمش": 8299,
      "کرمم": 8300,
      "درازت": 8301,
      "درازم": 8302,
      "درازی": 8303,
      "آفتابیست": 8304,
      "اخترم": 8305,
      "اختران": 8306,
      "اختیاری": 8307,
      "خیرت": 8308,
      "خیرش": 8309,
      "سپه": 8310,
      "سپرم": 8311,
      "سپندی": 8312,
      "سپارم": 8313,
      "سپاران": 8314,
      "سپاس": 8315,
      "سپارمت": 8316,
      "صافیت": 8317,
      "بهارم": 8318,
      "فروشش": 8319,
      "فروشویم": 8320,
      "صبرخود": 8321,
      "عزیزی": 8322,
      "نکردند": 8323,
      "نکردنم": 8324,
      "خوردند": 8325,
      "نیمروز": 8326,
      "نیمشب": 8327,
      "نیمتاج": 8328,
      "جودت": 8329,
      "عذب": 8330,
      "عذری": 8331,
      "عذرم": 8332,
      "عذبم": 8333,
      "عذابیست": 8334,
      "ولتی": 8335,
      "شاهدباز": 8336,
      "اعتراف": 8337,
      "اعتقادی": 8338,
      "بلندتر": 8339,
      "بلندنظر": 8340,
      "بلندمرتبه": 8341,
      "مشکینت": 8342,
      "مشکینش": 8343,
      "مشکینم": 8344,
      "فراقش": 8345,
      "اجری": 8346,
      "اجتن": 8347,
      "اجرها": 8348,
      "اجنبی": 8349,
      "دشنام": 8350,
      "دشمنت": 8351,
      "دشنامی": 8352,
      "رختم": 8353,
      "کینم": 8354,
      "ازلش": 8355,
      "ازلم": 8356,
      "ندانند": 8357,
      "ندانمت": 8358,
      "ادیب": 8359,
      "ادیبان": 8360,
      "تندروی": 8361,
      "تندرستی": 8362,
      "جورها": 8363,
      "شناخت": 8364,
      "شناسیم": 8365,
      "شناسای": 8366,
      "شناسد": 8367,
      "شناختم": 8368,
      "طالح": 8369,
      "طالبان": 8370,
      "طالعم": 8371,
      "روحش": 8372,
      "روحم": 8373,
      "نیکت": 8374,
      "سیرش": 8375,
      "داندت": 8376,
      "تنگت": 8377,
      "تنگش": 8378,
      "تنگدل": 8379,
      "تنگنا": 8380,
      "تنگنای": 8381,
      "تنگدستان": 8382,
      "خدمتش": 8383,
      "خدمتم": 8384,
      "داوود": 8385,
      "داوودی": 8386,
      "سلیم": 8387,
      "سلیمی": 8388,
      "عاقلا": 8389,
      "پسری": 8390,
      "پسندید": 8391,
      "ایامم": 8392,
      "دیوسیرت": 8393,
      "صاحبقران": 8394,
      "آزاری": 8395,
      "آزادت": 8396,
      "آزاریست": 8397,
      "آزموده": 8398,
      "نسرینی": 8399,
      "نسپریم": 8400,
      "نافع": 8401,
      "نافرجام": 8402,
      "کابین": 8403,
      "کاسل": 8404,
      "کاخر": 8405,
      "کاسم": 8406,
      "کاوین": 8407,
      "کاشتیم": 8408,
      "ستیزه": 8409,
      "التجر": 8410,
      "التفاتش": 8411,
      "التلاقی": 8412,
      "التکاسل": 8413,
      "شیخان": 8414,
      "تیغت": 8415,
      "محتشم": 8416,
      "محتاله": 8417,
      "محتسبی": 8418,
      "فرستم": 8419,
      "فرستادم": 8420,
      "مسکینم": 8421,
      "مسکینان": 8422,
      "حاجتت": 8423,
      "تازیم": 8424,
      "خجند": 8425,
      "خامم": 8426,
      "خامان": 8427,
      "خاموش": 8428,
      "خاموشم": 8429,
      "خاموشان": 8430,
      "خاموشیم": 8431,
      "دنیوی": 8432,
      "نابش": 8433,
      "تاجش": 8434,
      "تاجداران": 8435,
      "نگهش": 8436,
      "یارانت": 8437,
      "دریغش": 8438,
      "طریقا": 8439,
      "طریقش": 8440,
      "عارضه": 8441,
      "عزیزت": 8442,
      "جگرخون": 8443,
      "جگرگوشه": 8444,
      "جگرتشنگان": 8445,
      "خدایت": 8446,
      "خدایش": 8447,
      "خدایگان": 8448,
      "رانند": 8449,
      "وفاداران": 8450,
      "وفادار": 8451,
      "گناهم": 8452,
      "گناهیست": 8453,
      "امانم": 8454,
      "سیهش": 8455,
      "سیهند": 8456,
      "بازیچه": 8457,
      "بازیهای": 8458,
      "زهدفروشی": 8459,
      "پریشانت": 8460,
      "پریشانیت": 8461,
      "هجرانش": 8462,
      "هجرانند": 8463,
      "پادشاهان": 8464,
      "بسوختی": 8465,
      "شوید": 8466,
      "شویی": 8467,
      "وقف": 8468,
      "وقار": 8469,
      "وقاری": 8470,
      "وقتش": 8471,
      "بهشتت": 8472,
      "بهشتم": 8473,
      "بهشتیم": 8474,
      "نیازمندی": 8475,
      "دیدمش": 8476,
      "ملهکی": 8477,
      "گشایشی": 8478,
      "بایست": 8479,
      "بایدم": 8480,
      "بایثش": 8481,
      "بحرکفا": 8482,
      "تحسر": 8483,
      "تحمیق": 8484,
      "تحسین": 8485,
      "تحملی": 8486,
      "تحصیل": 8487,
      "حوا": 8488,
      "حورالعین": 8489,
      "شرمم": 8490,
      "شرممان": 8491,
      "شرمزده": 8492,
      "شرمنده": 8493,
      "شرمسارم": 8494,
      "طبیبی": 8495,
      "طبیبش": 8496,
      "غزلش": 8497,
      "غزلم": 8498,
      "غزلی": 8499,
      "غزلهای": 8500,
      "غزلیات": 8501,
      "فردایی": 8502,
      "فردوسم": 8503,
      "مویت": 8504,
      "مویم": 8505,
      "مویه": 8506,
      "موییست": 8507,
      "مشوشم": 8508,
      "هنوزم": 8509,
      "پوشیدن": 8510,
      "پوسیده": 8511,
      "گهیست": 8512,
      "خوبانم": 8513,
      "دیرگاه": 8514,
      "افشانم": 8515,
      "افشانند": 8516,
      "کنارش": 8517,
      "شیردلی": 8518,
      "شیردلا": 8519,
      "کلکت": 8520,
      "غریبانه": 8521,
      "دشمنم": 8522,
      "دشمنی": 8523,
      "اسامر": 8524,
      "اسماعی": 8525,
      "ببرش": 8526,
      "ببرده": 8527,
      "ببردی": 8528,
      "خصال": 8529,
      "خصمت": 8530,
      "خصالی": 8531,
      "طیلسان": 8532,
      "طبعم": 8533,
      "طبعان": 8534,
      "مذلت": 8535,
      "مروق": 8536,
      "مروه": 8537,
      "مرواد": 8538,
      "مالند": 8539,
      "نشدش": 8540,
      "هنرش": 8541,
      "هنرپرور": 8542,
      "گداصفتی": 8543,
      "یعقوب": 8544,
      "سرمایه": 8545,
      "روزگارم": 8546,
      "مقامش": 8547,
      "بعدت": 8548,
      "بعدکم": 8549,
      "هنوزش": 8550,
      "بنیوش": 8551,
      "بنیادت": 8552,
      "بنیوشیم": 8553,
      "حکمش": 8554,
      "سرابت": 8555,
      "سرافراز": 8556,
      "سرافشانش": 8557,
      "شبیه": 8558,
      "شبیست": 8559,
      "نصیبان": 8560,
      "پنهانش": 8561,
      "پنهانم": 8562,
      "برفتم": 8563,
      "برفتیم": 8564,
      "کوششیت": 8565,
      "ابروکمان": 8566,
      "نفسش": 8567,
      "باریست": 8568,
      "بزمگاهی": 8569,
      "سعدیست": 8570,
      "فضولی": 8571,
      "فضایل": 8572,
      "لافد": 8573,
      "وجودت": 8574,
      "وجودند": 8575,
      "یتنی": 8576,
      "منیوش": 8577,
      "بیندازم": 8578,
      "بیندازی": 8579,
      "بیندوختم": 8580,
      "لیکنش": 8581,
      "جوانا": 8582,
      "جوانت": 8583,
      "جوانم": 8584,
      "حیاتی": 8585,
      "حیاتش": 8586,
      "حیاتم": 8587,
      "زوالی": 8588,
      "زوایای": 8589,
      "ظلام": 8590,
      "عشرتی": 8591,
      "فرمایان": 8592,
      "فرموده": 8593,
      "قاصر": 8594,
      "قاصدی": 8595,
      "لاغر": 8596,
      "لاغرم": 8597,
      "میلش": 8598,
      "میلم": 8599,
      "روشنت": 8600,
      "دیگرت": 8601,
      "دیگرگون": 8602,
      "رقیبم": 8603,
      "بندگیش": 8604,
      "هاتفی": 8605,
      "حوران": 8606,
      "حورسرشت": 8607,
      "خردم": 8608,
      "خردمند": 8609,
      "خرمند": 8610,
      "رنجد": 8611,
      "رنجور": 8612,
      "رنجید": 8613,
      "رنجوری": 8614,
      "رنجیدن": 8615,
      "رنجیده": 8616,
      "سارا": 8617,
      "ساربانان": 8618,
      "طایری": 8619,
      "نعمانی": 8620,
      "پندش": 8621,
      "دریادل": 8622,
      "دریادلی": 8623,
      "برخاسته": 8624,
      "پیوندی": 8625,
      "رقصیدن": 8626,
      "نقابت": 8627,
      "خرمنم": 8628,
      "شادیت": 8629,
      "حاصلم": 8630,
      "پروردی": 8631,
      "پرورشم": 8632,
      "محتسبم": 8633,
      "تلک": 8634,
      "تلخم": 8635,
      "تلبیس": 8636,
      "سمنش": 8637,
      "شمیم": 8638,
      "قلبگاهی": 8639,
      "مثانی": 8640,
      "مثالی": 8641,
      "چاکری": 8642,
      "کمرش": 8643,
      "کمربند": 8644,
      "کمربسته": 8645,
      "دلقش": 8646,
      "نگاهش": 8647,
      "ابدال": 8648,
      "چشمهاست": 8649,
      "هواگیر": 8650,
      "خویشتنم": 8651,
      "خویشتنش": 8652,
      "هزارانند": 8653,
      "طریقتم": 8654,
      "سلیمانم": 8655,
      "آسمانش": 8656,
      "بشکنی": 8657,
      "خارا": 8658,
      "شامگاهش": 8659,
      "عفاف": 8660,
      "عفاک": 8661,
      "عفوش": 8662,
      "قامتم": 8663,
      "چیز": 8664,
      "افسونی": 8665,
      "سرایتی": 8666,
      "نهادش": 8667,
      "نهادن": 8668,
      "نهادند": 8669,
      "مدعیانی": 8670,
      "یافتم": 8671,
      "یافتی": 8672,
      "بستانند": 8673,
      "قرارگاه": 8674,
      "خندانت": 8675,
      "غیرتت": 8676,
      "رحمتم": 8677,
      "رحمتی": 8678,
      "نصیحتگوی": 8679,
      "آورش": 8680,
      "آورم": 8681,
      "آورند": 8682,
      "آورمش": 8683,
      "تدبیرم": 8684,
      "رضاست": 8685,
      "شعرم": 8686,
      "شعبان": 8687,
      "صراط": 8688,
      "صراف": 8689,
      "صیدش": 8690,
      "عملت": 8691,
      "عملان": 8692,
      "مونسی": 8693,
      "مگیرش": 8694,
      "مگیرم": 8695,
      "هفتم": 8696,
      "هفتاد": 8697,
      "وابینی": 8698,
      "واخواست": 8699,
      "واژگون": 8700,
      "والای": 8701,
      "کشیدند": 8702,
      "کشتیبان": 8703,
      "میرمش": 8704,
      "نمودن": 8705,
      "نمودند": 8706,
      "کیمیافرو": 8707,
      "کیمیاییست": 8708,
      "محرابم": 8709,
      "صلاحی": 8710,
      "بخشدت": 8711,
      "جلالت": 8712,
      "جنابت": 8713,
      "جنابش": 8714,
      "جنابم": 8715,
      "دنبال": 8716,
      "زهرم": 8717,
      "سماط": 8718,
      "سماک": 8719,
      "سماحت": 8720,
      "سماوات": 8721,
      "علیها": 8722,
      "مقصدی": 8723,
      "مقصرم": 8724,
      "نخرند": 8725,
      "نخرید": 8726,
      "نخروشیم": 8727,
      "نگرانی": 8728,
      "نگراید": 8729,
      "کافکنم": 8730,
      "کافران": 8731,
      "کافراسی": 8732,
      "گمار": 8733,
      "گمارم": 8734,
      "گمشدگان": 8735,
      "گنهش": 8736,
      "گنهند": 8737,
      "گنهکار": 8738,
      "گنهیم": 8739,
      "الاخر": 8740,
      "الاطلال": 8741,
      "الاعادی": 8742,
      "داغدار": 8743,
      "نمازی": 8744,
      "لطیفان": 8745,
      "سنبلش": 8746,
      "مشکلات": 8747,
      "طبیبم": 8748,
      "حیاتنا": 8749,
      "تدبیرش": 8750,
      "آغازم": 8751,
      "آغوشم": 8752,
      "جاهت": 8753,
      "جاهم": 8754,
      "جاهلی": 8755,
      "حضرتم": 8756,
      "دودم": 8757,
      "دودمان": 8758,
      "ذکرک": 8759,
      "واعظان": 8760,
      "چاهم": 8761,
      "درمانم": 8762,
      "منظوم": 8763,
      "دهندت": 8764,
      "الحجه": 8765,
      "الحاح": 8766,
      "الحجر": 8767,
      "الحزن": 8768,
      "الحرام": 8769,
      "الحمدل": 8770,
      "الحبیب": 8771,
      "الحانیست": 8772,
      "کنجی": 8773,
      "گلستانش": 8774,
      "بازارش": 8775,
      "بازارتیزی": 8776,
      "خمارکش": 8777,
      "فروغش": 8778,
      "کمالش": 8779,
      "سبزت": 8780,
      "سبزپوشان": 8781,
      "سبزخطی": 8782,
      "عنبربوی": 8783,
      "عنبربوست": 8784,
      "عنبرشکنش": 8785,
      "سپهرت": 8786,
      "سپهرش": 8787,
      "عاقبتم": 8788,
      "بنیادش": 8789,
      "بنیادست": 8790,
      "اصفی": 8791,
      "اصطبل": 8792,
      "اصطبرت": 8793,
      "ببستی": 8794,
      "حضوری": 8795,
      "رزق": 8796,
      "رزاد": 8797,
      "رزاق": 8798,
      "رایگان": 8799,
      "رایحه": 8800,
      "شایبه": 8801,
      "غبارم": 8802,
      "فالیست": 8803,
      "فکنش": 8804,
      "قباله": 8805,
      "قباپوش": 8806,
      "قندش": 8807,
      "قندپرست": 8808,
      "مدهوشیم": 8809,
      "مبیناد": 8810,
      "پارسیم": 8811,
      "پاردمش": 8812,
      "کشتن": 8813,
      "کشتگان": 8814,
      "انتصاف": 8815,
      "انتخاب": 8816,
      "برمکش": 8817,
      "برمتاب": 8818,
      "برمزنش": 8819,
      "خواندت": 8820,
      "خواندمی": 8821,
      "اهرمنی": 8822,
      "شیرازم": 8823,
      "شیرازی": 8824,
      "نگویی": 8825,
      "نگویمت": 8826,
      "نوازی": 8827,
      "نوازیت": 8828,
      "پرستیست": 8829,
      "پرستیدن": 8830,
      "فرصتش": 8831,
      "لوحش": 8832,
      "شاخسار": 8833,
      "دریابند": 8834,
      "فریبم": 8835,
      "زنجیرش": 8836,
      "زنجیرم": 8837,
      "آتشکده": 8838,
      "بگسل": 8839,
      "بگداخت": 8840,
      "بگزیده": 8841,
      "بگنجان": 8842,
      "بگماشتیم": 8843,
      "بگدازد": 8844,
      "بگنجانی": 8845,
      "جمعند": 8846,
      "حلاج": 8847,
      "حلاوت": 8848,
      "حلاوتی": 8849,
      "رسیدی": 8850,
      "قافیه": 8851,
      "لایعقل": 8852,
      "لایفوت": 8853,
      "لشکرشکن": 8854,
      "مصقول": 8855,
      "مصالح": 8856,
      "هلاهل": 8857,
      "کتبت": 8858,
      "برافکنم": 8859,
      "برافراز": 8860,
      "برافروزی": 8861,
      "برافرازم": 8862,
      "ندادش": 8863,
      "بیانش": 8864,
      "دیدارت": 8865,
      "پیکانی": 8866,
      "معنیی": 8867,
      "احوالم": 8868,
      "رسانم": 8869,
      "هستیش": 8870,
      "جوانیست": 8871,
      "زنخدانش": 8872,
      "رنگینم": 8873,
      "مشتاقی": 8874,
      "آرزومند": 8875,
      "مژگانت": 8876,
      "مژگانش": 8877,
      "اختیارت": 8878,
      "آزادگان": 8879,
      "حضورش": 8880,
      "بیابانش": 8881,
      "آرمت": 8882,
      "بدرم": 8883,
      "بدرود": 8884,
      "بگردانید": 8885,
      "جرمش": 8886,
      "حرامم": 8887,
      "خداوندانند": 8888,
      "دختری": 8889,
      "غیری": 8890,
      "غیها": 8891,
      "غیبتی": 8892,
      "فقرم": 8893,
      "فقیرم": 8894,
      "مبرا": 8895,
      "پناهت": 8896,
      "پناهم": 8897,
      "ندیدمی": 8898,
      "ندیدند": 8899,
      "خوبانی": 8900,
      "منهج": 8901,
      "منهزم": 8902,
      "بیامرزاد": 8903,
      "معامل": 8904,
      "کوتهی": 8905,
      "بنگرید": 8906,
      "کمندش": 8907,
      "کمندشان": 8908,
      "کمندها": 8909,
      "مسندفروز": 8910,
      "اخترت": 8911,
      "عذرخواهی": 8912,
      "چیزیم": 8913,
      "یوسفم": 8914,
      "آمینی": 8915,
      "آمیزی": 8916,
      "آشنای": 8917,
      "آشناست": 8918,
      "ادراکی": 8919,
      "بگویش": 8920,
      "بزنند": 8921,
      "بخوانند": 8922,
      "تعسا": 8923,
      "تعزیر": 8924,
      "تعجی": 8925,
      "تعبیه": 8926,
      "حسبت": 8927,
      "خروشی": 8928,
      "خروشان": 8929,
      "خالیت": 8930,
      "دماغم": 8931,
      "رعایت": 8932,
      "رعایتی": 8933,
      "عودش": 8934,
      "غافلم": 8935,
      "غافلند": 8936,
      "فکندش": 8937,
      "قبولش": 8938,
      "مورز": 8939,
      "مورش": 8940,
      "مورم": 8941,
      "مورانند": 8942,
      "مفلسم": 8943,
      "نصب": 8944,
      "ناولها": 8945,
      "نماندی": 8946,
      "نماندم": 8947,
      "هشیاران": 8948,
      "هشیاریست": 8949,
      "وردت": 8950,
      "چشمیست": 8951,
      "درودی": 8952,
      "دروازه": 8953,
      "شمارند": 8954,
      "شمشادت": 8955,
      "شمشادقدان": 8956,
      "شمشادقدی": 8957,
      "معذوری": 8958,
      "کوهساران": 8959,
      "بسازیم": 8960,
      "بنشانی": 8961,
      "ماهیان": 8962,
      "گردشند": 8963,
      "خرامانم": 8964,
      "پادشهش": 8965,
      "پادشهان": 8966,
      "پادشهند": 8967,
      "پادشهانند": 8968,
      "هندویت": 8969,
      "هندویش": 8970,
      "غنیمتی": 8971,
      "آرامم": 8972,
      "آرامگه": 8973,
      "آرامگهش": 8974,
      "بنهفتم": 8975,
      "بانید": 8976,
      "تجری": 8977,
      "تجرد": 8978,
      "تاریکی": 8979,
      "جفاست": 8980,
      "جفاکش": 8981,
      "زودت": 8982,
      "زودش": 8983,
      "زودتر": 8984,
      "صفتم": 8985,
      "عدد": 8986,
      "عدوی": 8987,
      "عدالت": 8988,
      "عزتم": 8989,
      "عیاریست": 8990,
      "فرقدان": 8991,
      "قسمتت": 8992,
      "قسمتم": 8993,
      "نزنیم": 8994,
      "نزول": 8995,
      "نزدیمش": 8996,
      "نکوکاری": 8997,
      "هنرهای": 8998,
      "کمیت": 8999,
      "کمینم": 9000,
      "کلهند": 9001,
      "کلهدار": 9002,
      "ایلخانی": 9003,
      "ایوانم": 9004,
      "دردمندی": 9005,
      "درختان": 9006,
      "بامم": 9007,
      "نیامده": 9008,
      "دلکشش": 9009,
      "نگفتم": 9010,
      "نگفتیم": 9011,
      "جاودانه": 9012,
      "بارانم": 9013,
      "نازکانه": 9014,
      "صبحدمم": 9015,
      "سهلش": 9016,
      "غرضان": 9017,
      "مشامش": 9018,
      "حریفند": 9019,
      "بگذشتند": 9020,
      "گشایدت": 9021,
      "طلبیدیم": 9022,
      "بسیارند": 9023,
      "بسیارنقش": 9024,
      "حیرتند": 9025,
      "تماشاخانه": 9026,
      "آفرینش": 9027,
      "انتظارت": 9028,
      "انتظارم": 9029,
      "بسوزان": 9030,
      "بسوزم": 9031,
      "بسوزانم": 9032,
      "تطیب": 9033,
      "حسودان": 9034,
      "حلالش": 9035,
      "حلالتر": 9036,
      "رشکش": 9037,
      "زورق": 9038,
      "سپرند": 9039,
      "سپردی": 9040,
      "سامانم": 9041,
      "صفات": 9042,
      "صفاتش": 9043,
      "صفاتم": 9044,
      "ضیمران": 9045,
      "طعمه": 9046,
      "غزال": 9047,
      "فسوسی": 9048,
      "فسونها": 9049,
      "مدرج": 9050,
      "مصرع": 9051,
      "مصرفش": 9052,
      "ننوشته": 9053,
      "وجهی": 9054,
      "کاشفته": 9055,
      "گانیم": 9056,
      "یابند": 9057,
      "اندوده": 9058,
      "اندوخت": 9059,
      "اندوخته": 9060,
      "اندوختم": 9061,
      "خوانیم": 9062,
      "المبلغ": 9063,
      "افروزد": 9064,
      "افروزیم": 9065,
      "شکستند": 9066,
      "شکستگی": 9067,
      "شکستگانیم": 9068,
      "نواسازی": 9069,
      "فرماندهی": 9070,
      "بندگانش": 9071,
      "چندینت": 9072,
      "گریانم": 9073,
      "الیهودشان": 9074,
      "نشستن": 9075,
      "خلاصش": 9076,
      "خانقاهت": 9077,
      "خانقاهی": 9078,
      "مخمورم": 9079,
      "کوتاهم": 9080,
      "کوتاهی": 9081,
      "فرهادکش": 9082,
      "جاودانش": 9083,
      "آدمیانی": 9084,
      "بکشند": 9085,
      "تارک": 9086,
      "تاراج": 9087,
      "تندباد": 9088,
      "تندحمله": 9089,
      "تندخوییست": 9090,
      "حبیبا": 9091,
      "حبیبان": 9092,
      "حبیبم": 9093,
      "زاریم": 9094,
      "سحرخیز": 9095,
      "ساعته": 9096,
      "ساعتم": 9097,
      "شرابت": 9098,
      "صنعش": 9099,
      "صنوبریم": 9100,
      "صنوبرم": 9101,
      "طنبیست": 9102,
      "عطا": 9103,
      "عطف": 9104,
      "عطار": 9105,
      "عطرگردان": 9106,
      "عرقش": 9107,
      "عتابم": 9108,
      "غمینی": 9109,
      "غرورش": 9110,
      "فارغی": 9111,
      "فارغند": 9112,
      "قبضه": 9113,
      "قالب": 9114,
      "قالبم": 9115,
      "مطاع": 9116,
      "مطلق": 9117,
      "مطیب": 9118,
      "مریخ": 9119,
      "مریز": 9120,
      "مریدان": 9121,
      "مریزاد": 9122,
      "نرفته": 9123,
      "وزیرم": 9124,
      "پرهیزی": 9125,
      "گروه": 9126,
      "درگهش": 9127,
      "باورت": 9128,
      "باورم": 9129,
      "املاک": 9130,
      "دیرینم": 9131,
      "افکنده": 9132,
      "افکندی": 9133,
      "افکندیم": 9134,
      "ماجراست": 9135,
      "ماجراها": 9136,
      "نگذاری": 9137,
      "نگذارم": 9138,
      "نگذارد": 9139,
      "نگذشتم": 9140,
      "نگذاریم": 9141,
      "نگیری": 9142,
      "نگیریم": 9143,
      "ورقش": 9144,
      "رهگذرت": 9145,
      "پرسیدم": 9146,
      "بوییش": 9147,
      "نازنینم": 9148,
      "بشویم": 9149,
      "بشارتها": 9150,
      "سبکبار": 9151,
      "سبکروحی": 9152,
      "قلمم": 9153,
      "نشنیدی": 9154,
      "نشنیدم": 9155,
      "نشنیدیم": 9156,
      "نشنیدن": 9157,
      "سنگینت": 9158,
      "بالاتر": 9159,
      "رضوانش": 9160,
      "انتظارمت": 9161,
      "بگردم": 9162,
      "بزرگ": 9163,
      "بپرسد": 9164,
      "ببینید": 9165,
      "جنایت": 9166,
      "جنبش": 9167,
      "جنایتی": 9168,
      "جنبانید": 9169,
      "جیده": 9170,
      "جداافتد": 9171,
      "خریدم": 9172,
      "خریدارم": 9173,
      "خریدیم": 9174,
      "خامیست": 9175,
      "زردشتی": 9176,
      "زردوز": 9177,
      "سقاک": 9178,
      "سقیم": 9179,
      "سامانی": 9180,
      "سامریش": 9181,
      "سبوست": 9182,
      "سبوکش": 9183,
      "سبوکشان": 9184,
      "سفیدم": 9185,
      "صدرنشینم": 9186,
      "صنعان": 9187,
      "طامع": 9188,
      "غرامی": 9189,
      "مکرر": 9190,
      "ناکام": 9191,
      "ناکسم": 9192,
      "وحشت": 9193,
      "وحشتم": 9194,
      "کبریا": 9195,
      "کمتریم": 9196,
      "گداهمت": 9197,
      "گسترده": 9198,
      "گزارم": 9199,
      "گزارند": 9200,
      "بربستم": 9201,
      "خوارگان": 9202,
      "امرش": 9203,
      "امشبم": 9204,
      "استخوانم": 9205,
      "ویرانی": 9206,
      "سرزنشها": 9207,
      "پیچید": 9208,
      "دستانش": 9209,
      "جهانیان": 9210,
      "کارانند": 9211,
      "نمایش": 9212,
      "هواییست": 9213,
      "امیدواری": 9214,
      "امیدواران": 9215,
      "زندگیم": 9216,
      "جوهرت": 9217,
      "آهویی": 9218,
      "مقدمش": 9219,
      "نشناخته": 9220,
      "بخشندگان": 9221,
      "غلامیست": 9222,
      "هاتفم": 9223,
      "نعمتی": 9224,
      "مثلش": 9225,
      "کافردل": 9226,
      "کافردلان": 9227,
      "کافرکیش": 9228,
      "کافرکیشم": 9229,
      "آموختی": 9230,
      "اهرمنان": 9231,
      "جادویت": 9232,
      "جادویی": 9233,
      "مصطفوی": 9234,
      "خروشند": 9235,
      "هشیارش": 9236,
      "آویخت": 9237,
      "آویزه": 9238,
      "آویختم": 9239,
      "آزارش": 9240,
      "آزارها": 9241,
      "آگاهم": 9242,
      "بخورند": 9243,
      "بپوشانید": 9244,
      "تهیست": 9245,
      "تخمه": 9246,
      "تقصیرم": 9247,
      "تزویرم": 9248,
      "سکندروار": 9249,
      "شریفت": 9250,
      "شهیدان": 9251,
      "عقبش": 9252,
      "غایبم": 9253,
      "غارتگری": 9254,
      "فزا": 9255,
      "فارسی": 9256,
      "فارغم": 9257,
      "قاتلی": 9258,
      "مخمر": 9259,
      "مخفی": 9260,
      "مخدره": 9261,
      "مخدوم": 9262,
      "نچشید": 9263,
      "نچمیدیم": 9264,
      "نچشیدیم": 9265,
      "نبردیم": 9266,
      "نبستم": 9267,
      "وعظت": 9268,
      "وعظی": 9269,
      "کریمان": 9270,
      "کریمت": 9271,
      "گزیند": 9272,
      "یزدان": 9273,
      "درآیم": 9274,
      "درآییم": 9275,
      "برسانش": 9276,
      "خوبتری": 9277,
      "الطور": 9278,
      "دوزخی": 9279,
      "شکفتم": 9280,
      "شکفتنم": 9281,
      "گوارا": 9282,
      "گوشمالی": 9283,
      "دستارش": 9284,
      "دستارچه": 9285,
      "رخسارت": 9286,
      "رخسارم": 9287,
      "رخسارش": 9288,
      "ملالش": 9289,
      "ملالتی": 9290,
      "شهنشه": 9291,
      "شهسوارا": 9292,
      "ناصحم": 9293,
      "ناصحان": 9294,
      "تیزرو": 9295,
      "تیزهوش": 9296,
      "محمودت": 9297,
      "سروریت": 9298,
      "مجلسی": 9299,
      "مجلسم": 9300,
      "بدنامیست": 9301,
      "پایانش": 9302,
      "سمندت": 9303,
      "درویشیش": 9304,
      "درویشیست": 9305,
      "تقویم": 9306,
      "محترمت": 9307,
      "اعظمم": 9308,
      "مثالث": 9309,
      "مثالش": 9310,
      "آغازد": 9311,
      "پذیرفت": 9312,
      "مشتاقم": 9313,
      "حسابش": 9314,
      "صنوبرخرام": 9315,
      "آهیش": 9316,
      "اویس": 9317,
      "اویم": 9318,
      "اوییم": 9319,
      "اویسم": 9320,
      "بدارمت": 9321,
      "بنوشان": 9322,
      "بنوشید": 9323,
      "بنواخت": 9324,
      "بنوازم": 9325,
      "بنوشیم": 9326,
      "بگیردم": 9327,
      "بگریزی": 9328,
      "بگرییم": 9329,
      "بگریزند": 9330,
      "بنوازد": 9331,
      "تبدلی": 9332,
      "تبدیل": 9333,
      "تنهاست": 9334,
      "جمادی": 9335,
      "رستمی": 9336,
      "رستگاری": 9337,
      "رستاخیز": 9338,
      "رستگارانند": 9339,
      "رمیدن": 9340,
      "شبانروزی": 9341,
      "شفاخانه": 9342,
      "شفاعت": 9343,
      "عدوت": 9344,
      "غوث": 9345,
      "غوطه": 9346,
      "غوغاست": 9347,
      "فداک": 9348,
      "لرزه": 9349,
      "لرزم": 9350,
      "لعب": 9351,
      "لعبت": 9352,
      "مظفرم": 9353,
      "مکمن": 9354,
      "مکانی": 9355,
      "مکحول": 9356,
      "مبتلای": 9357,
      "مبتلایی": 9358,
      "نستانی": 9359,
      "نستدن": 9360,
      "نالد": 9361,
      "نالیست": 9362,
      "نجاح": 9363,
      "گمراهی": 9364,
      "انگشتان": 9365,
      "انگشتری": 9366,
      "برنگرفت": 9367,
      "برنخاست": 9368,
      "برنخیزد": 9369,
      "برنتابد": 9370,
      "برنجاند": 9371,
      "برانم": 9372,
      "برندت": 9373,
      "برابری": 9374,
      "براندازی": 9375,
      "برافشانیم": 9376,
      "رافشانش": 9377,
      "تورانشه": 9378,
      "تورانشاهی": 9379,
      "تورانشاهم": 9380,
      "منعمان": 9381,
      "منعمم": 9382,
      "منقارش": 9383,
      "الفجر": 9384,
      "دلداریست": 9385,
      "دلجویت": 9386,
      "ویرانسرای": 9387,
      "مادرزادت": 9388,
      "سرکشش": 9389,
      "سرگردانند": 9390,
      "سرانجامم": 9391,
      "نهیبش": 9392,
      "نگشتند": 9393,
      "شکرینت": 9394,
      "شکرینش": 9395,
      "شقایقیم": 9396,
      "اقبالش": 9397,
      "نوشیدیم": 9398,
      "نوشینت": 9399,
      "خوشدلیست": 9400,
      "بازویت": 9401,
      "مدحتت": 9402,
      "یاسمین": 9403,
      "معتبر": 9404,
      "معتکف": 9405,
      "ترسایی": 9406,
      "ترسابچه": 9407,
      "ترکیبش": 9408,
      "مستمندان": 9409,
      "مستوران": 9410,
      "اندامم": 9411,
      "بخراش": 9412,
      "بخرامی": 9413,
      "بخراشدت": 9414,
      "نرسیدم": 9415,
      "عمرتان": 9416,
      "کامگارا": 9417,
      "کامگاران": 9418,
      "اتفاقی": 9419,
      "بشنویم": 9420,
      "کجاییم": 9421,
      "حریفیست": 9422,
      "باغبانا": 9423,
      "خواجگان": 9424,
      "فکرتت": 9425,
      "دیوارش": 9426,
      "تقاضایی": 9427,
      "نسبتش": 9428,
      "مذاقت": 9429,
      "بیاموزمت": 9430,
      "مفلسانیم": 9431,
      "ضعیفم": 9432,
      "مطبوعتر": 9433,
      "خدادادست": 9434,
      "قلندران": 9435,
      "غایبانه": 9436,
      "زیارتگه": 9437,
      "اشتیاقی": 9438,
      "بضرب": 9439,
      "ببخشای": 9440,
      "ببخشاید": 9441,
      "بفرستم": 9442,
      "بگویدت": 9443,
      "تخمین": 9444,
      "تخفیف": 9445,
      "تصنیف": 9446,
      "تصدیق": 9447,
      "تردامنی": 9448,
      "تسلیمیم": 9449,
      "حمامی": 9450,
      "حماکم": 9451,
      "خفتنم": 9452,
      "خاورم": 9453,
      "خاوران": 9454,
      "دشواری": 9455,
      "دشواریست": 9456,
      "دندانت": 9457,
      "ذاتی": 9458,
      "رکبانکم": 9459,
      "رسول": 9460,
      "رسوایی": 9461,
      "سردم": 9462,
      "سرداد": 9463,
      "سمرقند": 9464,
      "ساحری": 9465,
      "ساحلی": 9466,
      "شاکر": 9467,
      "شاکری": 9468,
      "شاکرند": 9469,
      "طبق": 9470,
      "طبعی": 9471,
      "طبله": 9472,
      "طفلان": 9473,
      "ظاهرت": 9474,
      "عبیرفشان": 9475,
      "قتیلا": 9476,
      "متاعی": 9477,
      "متاعم": 9478,
      "مشهوری": 9479,
      "مبندش": 9480,
      "مقرر": 9481,
      "مخلصان": 9482,
      "نادانی": 9483,
      "نبخشدت": 9484,
      "چابکی": 9485,
      "کالبد": 9486,
      "کالذی": 9487,
      "کالبدم": 9488,
      "کالبدش": 9489,
      "یاوه": 9490,
      "یاورم": 9491,
      "یغمایی": 9492,
      "درخشدش": 9493,
      "درافتادم": 9494,
      "بربندید": 9495,
      "برکشند": 9496,
      "برآوردم": 9497,
      "برهاندم": 9498,
      "باطنت": 9499,
      "بامدادان": 9500,
      "روندگان": 9501,
      "الهیست": 9502,
      "السلامه": 9503,
      "بیداریست": 9504,
      "نیایدش": 9505,
      "دلبندان": 9506,
      "دلربای": 9507,
      "استادش": 9508,
      "استغناست": 9509,
      "افروخته": 9510,
      "ریاییم": 9511,
      "ماجرایی": 9512,
      "دولتیان": 9513,
      "دولتیست": 9514,
      "شیرینی": 9515,
      "شیرینان": 9516,
      "شمالش": 9517,
      "لبانش": 9518,
      "پیشکش": 9519,
      "پیشکشش": 9520,
      "غمگینم": 9521,
      "مرکبم": 9522,
      "مداوای": 9523,
      "سوزیم": 9524,
      "سوارانند": 9525,
      "ملتمس": 9526,
      "بوالعجب": 9527,
      "بوالوفا": 9528,
      "بوالعج": 9529,
      "بوالمعالی": 9530,
      "مستشار": 9531,
      "ناگاهم": 9532,
      "محیای": 9533,
      "محیاک": 9534,
      "لولیان": 9535,
      "هوشیاران": 9536,
      "هوشیارانند": 9537,
      "کشفم": 9538,
      "نظربازیست": 9539,
      "مهلتم": 9540,
      "بیابیدش": 9541,
      "صبحگاهت": 9542,
      "کلامش": 9543,
      "مسکنت": 9544,
      "نفرمودی": 9545,
      "سپردم": 9546,
      "نیکخواهت": 9547,
      "نیکخواهان": 9548,
      "تازیان": 9549,
      "منتظر": 9550,
      "منتظم": 9551,
      "منتظرند": 9552,
      "منتظریم": 9553,
      "خانگیم": 9554,
      "خانگیست": 9555,
      "تحقیقش": 9556,
      "همنفس": 9557,
      "همنفسان": 9558,
      "مسیحای": 9559,
      "مسیحادم": 9560,
      "چاردهش": 9561,
      "مغبچگانم": 9562,
      "گدازانم": 9563,
      "چالاکتر": 9564,
      "تنهاییم": 9565,
      "آهوان": 9566,
      "آهوروشی": 9567,
      "بصارت": 9568,
      "بکاهد": 9569,
      "بدمهر": 9570,
      "بدمستان": 9571,
      "بماندی": 9572,
      "بماناد": 9573,
      "ببازند": 9574,
      "بخوانید": 9575,
      "تذرو": 9576,
      "تغرد": 9577,
      "تغنم": 9578,
      "تغابن": 9579,
      "تباه": 9580,
      "تعلل": 9581,
      "تلقین": 9582,
      "تلقینم": 9583,
      "ثاقب": 9584,
      "ثباتیت": 9585,
      "جعدش": 9586,
      "جعفرآباد": 9587,
      "جمیلم": 9588,
      "حصاری": 9589,
      "خاقانی": 9590,
      "دجال": 9591,
      "رحیل": 9592,
      "رحیمت": 9593,
      "رحیقا": 9594,
      "رباطیست": 9595,
      "زجاج": 9596,
      "زنگاریست": 9597,
      "سپید": 9598,
      "شبهه": 9599,
      "شبروان": 9600,
      "شاعره": 9601,
      "صداع": 9602,
      "صلیب": 9603,
      "طلوعی": 9604,
      "طغرای": 9605,
      "طغرایی": 9606,
      "طغرانوی": 9607,
      "عقیله": 9608,
      "عکسیست": 9609,
      "غفور": 9610,
      "فتوح": 9611,
      "فتوای": 9612,
      "مزادی": 9613,
      "مگسل": 9614,
      "مزرع": 9615,
      "نودولت": 9616,
      "نودولتی": 9617,
      "نرمک": 9618,
      "نزارم": 9619,
      "نگریزی": 9620,
      "نپرسند": 9621,
      "نچیدی": 9622,
      "هشتمش": 9623,
      "وشیست": 9624,
      "پختگان": 9625,
      "پرهوس": 9626,
      "پرهنران": 9627,
      "کلیدش": 9628,
      "یهدی": 9629,
      "انگور": 9630,
      "برسانی": 9631,
      "برکندم": 9632,
      "برنجید": 9633,
      "برآوردی": 9634,
      "برانگیختی": 9635,
      "برانگیختیم": 9636,
      "بالهجر": 9637,
      "روشنم": 9638,
      "الخسران": 9639,
      "الخصوص": 9640,
      "الخبایثش": 9641,
      "بیهده": 9642,
      "نیکونهاد": 9643,
      "نیرنگش": 9644,
      "دلستانان": 9645,
      "آنچت": 9646,
      "کنایتیست": 9647,
      "تاتاریست": 9648,
      "اوراد": 9649,
      "رهنمونیم": 9650,
      "ابواسحاق": 9651,
      "نمکدان": 9652,
      "سوزانم": 9653,
      "معجزه": 9654,
      "ملازمان": 9655,
      "بوسیست": 9656,
      "عیشیست": 9657,
      "شهریار": 9658,
      "شهریاری": 9659,
      "شهریاران": 9660,
      "شهپرت": 9661,
      "ناظرند": 9662,
      "ناسزا": 9663,
      "ناسزایی": 9664,
      "ناسزایان": 9665,
      "فرزندی": 9666,
      "عاطفتی": 9667,
      "تشریفات": 9668,
      "دادگستر": 9669,
      "دادگسترا": 9670,
      "دادگستری": 9671,
      "بدخواهان": 9672,
      "جولانگه": 9673,
      "فراموشش": 9674,
      "تهنیتت": 9675,
      "پادشهیم": 9676,
      "پاکدامنم": 9677,
      "حوالتش": 9678,
      "حوالتگاهم": 9679,
      "خطاپوشش": 9680,
      "زوالش": 9681,
      "هندوستان": 9682,
      "واثقم": 9683,
      "نخفتم": 9684,
      "نخفتیم": 9685,
      "مرحمتی": 9686,
      "عنبرافشانش": 9687,
      "غیورش": 9688,
      "فقیران": 9689,
      "مخموریت": 9690,
      "بیاموزند": 9691,
      "تجلیست": 9692,
      "عراقیست": 9693,
      "حکیمانه": 9694,
      "اشتیاقم": 9695,
      "خنجرگزاران": 9696,
      "رکابش": 9697,
      "مخلصانه": 9698,
      "آمرزگار": 9699,
      "پرویزنیست": 9700,
      "آذاری": 9701,
      "آذیتنی": 9702,
      "آشکارا": 9703,
      "اضداد": 9704,
      "اضطراب": 9705,
      "بمیری": 9706,
      "بمیرد": 9707,
      "بفروخته": 9708,
      "بفروشیم": 9709,
      "ببوید": 9710,
      "بدریدم": 9711,
      "بفشانند": 9712,
      "بطالت": 9713,
      "بطالتم": 9714,
      "بخیلان": 9715,
      "تحتها": 9716,
      "تهمتن": 9717,
      "ثناخوان": 9718,
      "جذبه": 9719,
      "جمیع": 9720,
[...]
